<unk>	0
<s>	0
</s>	0
<start>	0
<end>	0
▁the	-3.16415
.	-3.26276
,	-3.30359
▁of	-3.6797
s	-3.69115
▁in	-3.80171
▁and	-3.84212
▁a	-3.95536
▁is	-4.14757
▁to	-4.52624
▁The	-4.68491
▁was	-4.68909
-	-4.84859
▁	-4.94991
▁by	-5.02697
▁for	-5.10671
▁(	-5.13048
▁on	-5.13773
▁as	-5.22676
'	-5.33826
▁an	-5.51655
▁with	-5.53019
▁from	-5.59487
▁It	-5.65683
▁at	-5.66463
)	-5.70499
ing	-5.72138
ed	-5.86723
▁that	-5.89447
▁He	-6.07534
e	-6.09394
▁are	-6.1064
▁"	-6.12666
▁has	-6.15222
▁which	-6.21411
▁or	-6.23432
▁his	-6.24441
▁A	-6.26594
▁it	-6.26619
▁In	-6.27714
▁also	-6.30418
d	-6.32003
born	-6.36104
er	-6.40009
y	-6.42114
a	-6.44445
▁first	-6.47166
▁he	-6.47306
▁who	-6.4759
▁be	-6.51786
▁American	-6.53474
th	-6.56616
"	-6.56929
▁were	-6.5701
▁United	-6.63589
▁its	-6.64698
▁one	-6.64881
ly	-6.66569
t	-6.67363
▁family	-6.71955
▁album	-6.73381
▁known	-6.76093
▁film	-6.76157
▁New	-6.77034
o	-6.79608
i	-6.80072
▁been	-6.80707
▁their	-6.8387
▁species	-6.85596
al	-6.85682
▁released	-6.86725
n	-6.87718
▁States	-6.89726
▁have	-6.9205
S	-6.93294
▁two	-6.96252
▁had	-6.99524
es	-6.99916
▁but	-7.02767
▁S	-7.03574
in	-7.04299
▁not	-7.06234
▁other	-7.07439
▁This	-7.10376
▁located	-7.10419
).	-7.18706
▁her	-7.19818
▁University	-7.19841
▁County	-7.21856
▁after	-7.21875
▁this	-7.22692
),	-7.22816
:	-7.23547
▁She	-7.23552
;	-7.23797
▁played	-7.25293
▁I	-7.25638
▁series	-7.26472
▁former	-7.27214
▁used	-7.27334
▁U	-7.28337
▁South	-7.29286
▁part	-7.29797
▁re	-7.30549
▁National	-7.3081
r	-7.32179
or	-7.34872
▁name	-7.34911
▁over	-7.36324
▁all	-7.36415
▁between	-7.36655
an	-7.37039
▁during	-7.37635
▁team	-7.38035
▁into	-7.39545
▁band	-7.40288
▁state	-7.42018
▁E	-7.42287
▁most	-7.42434
▁can	-7.43101
▁World	-7.43903
on	-7.44954
▁such	-7.45025
man	-7.45898
▁time	-7.4595
▁only	-7.46493
en	-7.47899
▁under	-7.49631
▁British	-7.49774
k	-7.50295
▁more	-7.50878
▁C	-7.50947
▁based	-7.50969
▁B	-7.51706
us	-7.51821
m	-7.51992
▁well	-7.52366
▁won	-7.53382
▁three	-7.53727
▁number	-7.54007
▁including	-7.54018
/	-7.5407
▁held	-7.5475
ic	-7.5499
▁K	-7.55058
▁school	-7.55348
▁season	-7.55517
▁when	-7.55866
g	-7.56573
▁second	-7.57348
▁where	-7.57731
▁de	-7.57937
▁May	-7.58956
▁years	-7.59022
C	-7.60157
▁D	-7.60212
▁League	-7.60227
A	-7.60698
▁genus	-7.60976
▁School	-7.61066
▁music	-7.61633
▁through	-7.6178
▁O	-7.62018
▁member	-7.62367
▁since	-7.6251
▁football	-7.63701
▁1	-7.63785
▁station	-7.64287
re	-7.64825
▁year	-7.65258
ton	-7.65318
▁she	-7.65613
▁G	-7.657
▁T	-7.6575
▁they	-7.65963
▁made	-7.66187
c	-7.66217
▁P	-7.66511
▁up	-7.676
B	-7.68112
▁company	-7.68267
▁North	-7.68414
▁September	-7.70235
▁M	-7.70413
▁St	-7.70515
u	-7.71583
▁many	-7.7196
ar	-7.72166
▁new	-7.72261
▁single	-7.72342
▁York	-7.72536
▁March	-7.72557
▁January	-7.72728
▁2	-7.72905
to	-7.73876
▁being	-7.73893
▁City	-7.73953
▁August	-7.74011
▁about	-7.74182
▁October	-7.74412
ers	-7.75349
l	-7.76189
▁district	-7.76555
▁group	-7.76557
▁June	-7.77134
▁than	-7.77419
▁some	-7.77503
▁R	-7.77531
▁3	-7.77597
b	-7.77817
▁November	-7.78035
▁July	-7.78276
▁professional	-7.78668
▁until	-7.78698
▁found	-7.79026
▁John	-7.79562
▁television	-7.7957
le	-7.7967
▁later	-7.79921
▁April	-7.80512
▁game	-7.80816
st	-7.81373
T	-7.81621
▁song	-7.81878
▁published	-7.82402
▁W	-7.82456
▁both	-7.82622
na	-7.82627
ia	-7.82807
▁F	-7.83134
▁area	-7.83309
▁As	-7.83447
D	-7.83797
▁became	-7.84397
▁currently	-7.84644
▁directed	-7.84905
▁West	-7.85297
▁English	-7.85367
▁out	-7.86727
▁work	-7.86738
▁December	-7.86803
▁State	-7.86865
▁Australian	-7.87033
ry	-7.87442
ne	-7.87615
▁village	-7.88743
▁town	-7.89047
▁February	-7.8962
▁list	-7.89921
▁India	-7.90367
▁Australia	-7.90732
▁England	-7.90864
▁named	-7.90869
▁several	-7.91109
P	-7.91188
de	-7.91291
▁served	-7.91854
▁city	-7.9196
▁place	-7.92084
▁produced	-7.92804
ion	-7.92926
▁people	-7.92956
▁co	-7.9296
▁before	-7.93524
▁War	-7.93776
▁17	-7.93954
▁player	-7.94252
is	-7.94299
ch	-7.94806
▁N	-7.94904
F	-7.95398
▁4	-7.9595
▁Indian	-7.96006
el	-7.96075
▁four	-7.9616
▁community	-7.96248
▁De	-7.96363
ation	-7.97532
▁written	-7.98428
▁called	-7.98461
▁population	-7.98571
▁early	-7.98577
▁District	-7.98604
▁They	-7.98608
▁national	-7.98992
p	-7.99828
▁would	-7.99876
▁best	-7.9989
h	-8.00535
▁built	-8.00829
▁may	-8.01259
ist	-8.01314
il	-8.01469
W	-8.01611
G	-8.01981
M	-8.02039
▁small	-8.02531
H	-8.02981
▁use	-8.04308
z	-8.0459
".	-8.04674
▁same	-8.05572
▁Re	-8.05936
1	-8.06031
▁Canadian	-8.06102
ma	-8.06361
▁public	-8.06539
▁Al	-8.06629
te	-8.06778
▁high	-8.06783
▁no	-8.06823
co	-8.06861
▁include	-8.07514
▁River	-8.07658
▁16	-8.07673
▁House	-8.07991
um	-8.08081
▁L	-8.09001
▁show	-8.09003
ta	-8.0937
▁system	-8.10206
K	-8.1035
E	-8.10767
▁while	-8.1088
▁10	-8.10988
▁now	-8.11041
▁College	-8.11054
▁Canada	-8.1108
▁then	-8.11172
ra	-8.1147
it	-8.1158
▁California	-8.11751
▁club	-8.11807
▁members	-8.11902
▁studio	-8.11916
▁On	-8.12323
ur	-8.13176
▁London	-8.13321
▁2010	-8.13407
▁book	-8.14082
▁Records	-8.15188
▁founded	-8.15331
▁5	-8.15508
▁world	-8.15565
▁will	-8.15862
▁His	-8.15991
▁18	-8.16078
ity	-8.1659
I	-8.16851
▁J	-8.17113
▁International	-8.17373
f	-8.17451
▁home	-8.17808
▁within	-8.17835
▁local	-8.18622
▁title	-8.18635
land	-8.1912
ine	-8.19224
▁third	-8.19893
▁20	-8.2018
ro	-8.20231
ian	-8.20353
x	-8.20363
am	-8.20665
▁building	-8.20668
2	-8.21179
at	-8.21539
▁there	-8.22023
▁15	-8.22185
▁took	-8.22293
▁government	-8.22464
",	-8.23035
▁Football	-8.23272
▁against	-8.2423
▁rock	-8.24289
▁Park	-8.24353
▁East	-8.24429
▁election	-8.25202
ley	-8.25573
▁following	-8.25643
▁San	-8.25689
▁12	-8.25794
id	-8.26065
▁There	-8.26531
idae	-8.26556
▁La	-8.26645
O	-8.26768
N	-8.26997
▁around	-8.27311
▁Co	-8.27423
et	-8.2755
son	-8.2764
la	-8.2786
▁play	-8.27895
▁An	-8.28146
▁each	-8.28415
▁international	-8.28597
▁so	-8.29142
▁6	-8.29235
▁non	-8.29568
▁Center	-8.2969
▁All	-8.29768
▁plays	-8.29789
▁event	-8.30167
▁them	-8.30185
▁created	-8.30306
▁America	-8.30361
▁At	-8.30451
▁along	-8.30597
V	-8.3077
▁him	-8.30882
▁H	-8.31262
▁long	-8.31813
▁century	-8.31825
▁country	-8.31896
▁career	-8.32203
▁established	-8.3238
▁V	-8.3288
▁Association	-8.32932
▁near	-8.3311
▁Cup	-8.33116
▁footballer	-8.33131
▁development	-8.33195
▁debut	-8.33454
▁program	-8.3351
▁end	-8.33793
▁received	-8.34301
▁original	-8.34349
▁north	-8.34481
▁often	-8.34589
▁After	-8.34677
▁women	-8.35016
▁set	-8.35452
▁High	-8.35474
ive	-8.35484
▁7	-8.35704
able	-8.35719
▁began	-8.35762
ti	-8.36092
▁Council	-8.36349
the	-8.36624
▁last	-8.36647
L	-8.36963
▁different	-8.36978
▁Party	-8.37147
▁form	-8.37351
▁-	-8.37417
▁singer	-8.37791
▁service	-8.37916
▁features	-8.38102
▁various	-8.38193
▁un	-8.3832
▁large	-8.38507
▁11	-8.38527
▁five	-8.3855
as	-8.38953
▁back	-8.38961
up	-8.38965
▁8	-8.39197
▁role	-8.3922
▁main	-8.39234
▁Award	-8.39473
▁Street	-8.39653
▁moth	-8.39685
R	-8.39809
ter	-8.39857
li	-8.40254
▁video	-8.40295
▁Championship	-8.40364
▁No	-8.40476
▁line	-8.40535
▁UK	-8.40599
▁German	-8.40682
▁history	-8.40762
ul	-8.40771
▁13	-8.41046
ment	-8.41192
▁major	-8.41259
w	-8.41444
▁south	-8.41665
▁included	-8.41812
▁short	-8.41941
▁final	-8.42143
▁census	-8.42432
▁recorded	-8.42868
▁record	-8.43045
▁14	-8.43278
▁organization	-8.43343
▁Le	-8.43949
3	-8.43959
me	-8.43982
nd	-8.44217
▁novel	-8.4438
▁European	-8.45046
di	-8.45681
ri	-8.45733
age	-8.45845
▁II	-8.45917
▁men	-8.46186
▁Church	-8.46273
▁originally	-8.46408
▁director	-8.46437
se	-8.46441
▁9	-8.46454
▁Me	-8.46727
▁US	-8.46811
▁developed	-8.47106
▁these	-8.47351
ir	-8.47794
▁France	-8.47945
▁includes	-8.47964
▁release	-8.48087
ad	-8.48103
▁term	-8.48115
▁2011	-8.48148
▁radio	-8.48935
▁Man	-8.4903
The	-8.49164
▁c	-8.49559
▁top	-8.50111
▁research	-8.50159
ie	-8.50481
▁Italian	-8.50502
ke	-8.50644
ent	-8.50733
▁any	-8.50833
▁late	-8.50854
▁Mo	-8.51393
▁politician	-8.51491
ism	-8.5179
un	-8.519
▁Kingdom	-8.51945
mo	-8.51955
▁events	-8.5198
▁formed	-8.52033
no	-8.52441
▁James	-8.52546
ce	-8.52596
ate	-8.5271
▁label	-8.52822
▁region	-8.5287
ve	-8.5289
▁For	-8.5352
▁version	-8.53721
ary	-8.53887
be	-8.53895
▁current	-8.53958
▁games	-8.54075
▁sea	-8.54255
▁house	-8.54596
go	-8.54847
▁2008	-8.55056
da	-8.5527
▁French	-8.55512
▁19	-8.55967
▁common	-8.56378
ga	-8.56512
ha	-8.56618
ty	-8.5671
▁described	-8.56775
▁William	-8.56881
▁law	-8.56884
▁due	-8.57225
▁head	-8.57255
U	-8.5729
▁2012	-8.57467
4	-8.5748
▁pre	-8.5764
▁do	-8.57784
▁water	-8.57795
▁Zealand	-8.58061
▁Bo	-8.58276
ca	-8.58325
▁2014	-8.58508
▁2000	-8.58542
ge	-8.58614
▁own	-8.58637
▁plant	-8.58944
▁artist	-8.59263
▁Sa	-8.59301
▁author	-8.59555
▁live	-8.5968
▁owned	-8.59802
▁center	-8.5983
▁Summer	-8.60134
▁production	-8.60357
ll	-8.60384
▁Lake	-8.60395
▁Africa	-8.60416
▁consist	-8.60469
▁side	-8.60489
▁One	-8.60523
▁beetle	-8.60765
▁site	-8.60947
▁2015	-8.61341
▁Club	-8.61434
▁Union	-8.61438
ka	-8.61783
▁like	-8.61845
▁2006	-8.61928
▁order	-8.62042
▁designed	-8.62175
▁David	-8.62219
▁2009	-8.62377
▁Olympics	-8.62675
▁competed	-8.63011
▁'	-8.63134
▁2016	-8.63194
ba	-8.63242
▁students	-8.63327
ous	-8.63512
▁life	-8.63513
▁born	-8.63535
▁college	-8.63709
ni	-8.63911
▁popular	-8.63938
▁Island	-8.64064
▁death	-8.64173
ner	-8.64571
▁lead	-8.64806
▁2013	-8.64999
▁Royal	-8.65114
▁six	-8.65196
▁political	-8.65316
▁largest	-8.6562
▁business	-8.6563
▁African	-8.6565
▁general	-8.65721
▁Mar	-8.65967
▁Texas	-8.66527
▁George	-8.66593
▁Air	-8.66597
▁dis	-8.66649
▁2007	-8.66664
▁elected	-8.66727
▁million	-8.6726
▁Games	-8.67413
▁1990	-8.67495
▁language	-8.6776
▁post	-8.67847
▁competition	-8.67957
▁Group	-8.67961
ant	-8.68419
▁Western	-8.68566
▁Music	-8.68645
▁track	-8.68828
▁full	-8.68998
▁Central	-8.69387
sh	-8.69407
▁1980	-8.6944
▁President	-8.69559
▁Pro	-8.6962
lo	-8.6969
▁Europe	-8.69749
J	-8.6977
ting	-8.70073
▁Road	-8.70103
▁become	-8.70451
▁services	-8.70665
▁children	-8.70726
▁2003	-8.70787
▁considered	-8.70835
▁character	-8.71195
▁30	-8.71237
wa	-8.71315
▁Best	-8.71861
▁represented	-8.71881
ci	-8.71974
▁art	-8.72009
▁off	-8.72099
▁left	-8.72104
▁Washington	-8.72193
▁Robert	-8.7233
▁starring	-8.72661
ham	-8.72693
▁featured	-8.72694
ies	-8.72829
▁Her	-8.72964
and	-8.7301
▁support	-8.73017
▁Championships	-8.73117
▁Division	-8.73148
▁writer	-8.73357
den	-8.73422
▁Con	-8.73427
▁still	-8.73538
▁tournament	-8.73573
ck	-8.73631
▁Germany	-8.73744
▁church	-8.7378
▁To	-8.73855
▁field	-8.73992
▁playing	-8.7411
▁Company	-8.74133
▁run	-8.7415
▁appeared	-8.74214
▁open	-8.74338
ak	-8.74608
▁among	-8.74636
▁race	-8.74649
based	-8.74674
ville	-8.74684
▁Ca	-8.74975
▁TV	-8.75008
▁previously	-8.75255
▁Di	-8.75319
tic	-8.75324
ard	-8.75459
▁social	-8.75578
▁did	-8.75678
▁100	-8.75755
▁very	-8.75761
▁those	-8.75894
▁General	-8.76238
▁league	-8.76245
▁Court	-8.76488
▁Hall	-8.76557
▁free	-8.76789
▁producer	-8.76875
▁Paul	-8.76882
ya	-8.7694
▁down	-8.7696
▁story	-8.77092
▁Institute	-8.77126
▁1,	-8.77126
do	-8.77308
im	-8.77314
▁Wales	-8.77394
one	-8.77413
▁day	-8.77418
▁El	-8.77473
▁listed	-8.77692
▁Ireland	-8.77741
▁level	-8.77935
▁available	-8.77956
▁office	-8.78053
▁con	-8.78171
▁using	-8.7821
."	-8.78254
5	-8.78262
▁worked	-8.78318
▁Car	-8.78329
▁1970	-8.78399
▁design	-8.78773
▁25	-8.78985
▁Its	-8.7919
▁However	-8.79191
▁started	-8.7933
▁countries	-8.79389
▁works	-8.79439
▁Act	-8.79487
▁2004	-8.79584
▁actor	-8.79668
▁Army	-8.79706
▁Go	-8.79788
▁Michael	-8.79899
▁total	-8.79921
com	-8.79988
▁war	-8.79994
▁Ho	-8.80309
▁songs	-8.8039
▁Be	-8.80444
▁just	-8.80527
▁having	-8.81095
ster	-8.81212
▁Bay	-8.81245
▁Historic	-8.81303
▁Film	-8.81416
der	-8.8142
▁sold	-8.81427
▁drama	-8.8146
men	-8.81765
side	-8.81766
▁period	-8.81831
▁King	-8.81883
ang	-8.81926
time	-8.81981
▁similar	-8.82347
va	-8.82489
▁because	-8.82571
ted	-8.82612
▁Ar	-8.82705
field	-8.82782
os	-8.82909
▁given	-8.8296
▁could	-8.83011
▁northern	-8.83169
▁led	-8.83319
▁2005	-8.83325
7	-8.83352
▁across	-8.83448
ina	-8.83478
▁type	-8.83512
▁24	-8.83693
▁Christian	-8.83816
▁coach	-8.83887
▁Virginia	-8.84077
▁teams	-8.84185
ut	-8.84215
way	-8.84226
vi	-8.84241
▁party	-8.84618
by	-8.84862
▁retired	-8.84892
▁son	-8.85002
▁Department	-8.85119
▁southern	-8.85256
ized	-8.85452
▁project	-8.85606
▁These	-8.85857
▁west	-8.85874
▁pro	-8.85962
▁land	-8.86021
▁sub	-8.86068
▁marine	-8.86084
▁di	-8.86218
▁Assembly	-8.86258
▁chart	-8.86444
▁21	-8.86543
▁usually	-8.86641
ally	-8.86687
ial	-8.86936
per	-8.87238
ling	-8.87255
▁China	-8.87292
▁Red	-8.8746
ol	-8.87641
▁central	-8.87695
▁media	-8.87923
lin	-8.88007
▁science	-8.88017
▁areas	-8.88118
▁Na	-8.88176
ac	-8.88299
ler	-8.88364
▁independent	-8.88596
▁network	-8.88768
▁Navy	-8.89228
▁said	-8.89321
▁opened	-8.89534
con	-8.89538
▁2017	-8.89606
▁Z	-8.89641
▁fourth	-8.89645
ja	-8.89882
▁Republic	-8.90228
▁education	-8.90248
▁position	-8.90444
▁department	-8.90494
ana	-8.905
▁historic	-8.90738
est	-8.90762
▁Lo	-8.90933
▁information	-8.91032
▁Black	-8.91081
▁present	-8.91133
rd	-8.91165
▁east	-8.91231
▁Dur	-8.91353
▁came	-8.91542
ven	-8.91556
▁man	-8.91591
line	-8.91739
ber	-8.91809
mer	-8.91929
▁county	-8.91973
▁Florida	-8.91986
▁power	-8.9223
▁Society	-8.9224
▁Roman	-8.92309
▁official	-8.92439
▁private	-8.92566
8	-8.92667
▁moved	-8.92765
▁range	-8.92829
▁human	-8.92946
▁comedy	-8.93069
▁operated	-8.93145
ah	-8.93181
▁car	-8.93188
▁style	-8.93192
▁data	-8.93289
j	-8.93387
▁films	-8.93399
▁Se	-8.93402
ver	-8.93417
▁railway	-8.93469
▁native	-8.93723
▁Los	-8.93896
▁contains	-8.93947
▁Ne	-8.93958
wood	-8.93959
pe	-8.94003
▁announced	-8.94095
▁another	-8.94111
▁award	-8.94326
▁make	-8.94409
▁round	-8.94475
▁Since	-8.94539
▁edition	-8.94982
▁p	-8.95005
▁much	-8.95062
em	-8.95235
▁Hill	-8.95319
▁Academy	-8.9537
▁Grand	-8.95376
pa	-8.95657
▁few	-8.95657
6	-8.95737
▁gastropod	-8.95838
▁serves	-8.96007
ness	-8.96148
▁commonly	-8.96236
▁Ka	-8.96316
▁you	-8.96546
▁body	-8.967
▁commercial	-8.96711
▁books	-8.96783
▁Ba	-8.96785
▁e	-8.96926
▁Catholic	-8.97001
▁went	-8.97186
▁episode	-8.97263
sa	-8.9733
▁2002	-8.97365
▁process	-8.97427
▁Northern	-8.97535
▁Dr	-8.97598
▁22	-8.97661
▁seat	-8.97668
▁Parliament	-8.97697
ated	-8.97732
▁ex	-8.97789
▁class	-8.978
▁Da	-8.97815
▁times	-8.97819
▁1960	-8.97966
▁ground	-8.9831
▁mid	-8.98319
▁Billboard	-8.98516
▁Thomas	-8.98694
▁1996	-8.9877
▁died	-8.98969
ford	-8.98991
ance	-8.99016
min	-8.99017
▁addition	-8.99207
▁military	-8.9924
▁Great	-8.99329
▁sports	-8.99438
▁control	-8.99504
▁Green	-8.99617
que	-8.99788
▁what	-8.99816
▁unincorporated	-8.99876
ho	-9.00186
ish	-9.00283
▁throughout	-9.00521
▁Ro	-9.00744
▁Township	-9.00774
▁related	-9.01008
▁Super	-9.0115
▁important	-9.0126
les	-9.01331
class	-9.014
▁First	-9.01682
▁stars	-9.01693
▁if	-9.01722
▁Ha	-9.01735
▁Pennsylvania	-9.01817
▁road	-9.01869
v	-9.01882
▁per	-9.01884
▁Awards	-9.02071
▁seven	-9.02086
▁Minister	-9.0232
▁magazine	-9.02432
9	-9.02528
▁2001	-9.02585
▁Richard	-9.02603
▁age	-9.02605
▁Li	-9.02719
bo	-9.02792
▁Register	-9.02882
▁Tour	-9.02951
▁air	-9.03041
▁Angeles	-9.03157
dy	-9.03303
ea	-9.03335
▁Carolina	-9.03419
ud	-9.03473
▁special	-9.03513
▁modern	-9.03524
▁black	-9.03546
▁Peter	-9.03588
▁Italy	-9.03777
▁joined	-9.04077
▁although	-9.04122
▁aired	-9.04256
ite	-9.04263
▁making	-9.04301
▁reached	-9.04327
▁23	-9.04584
▁right	-9.04643
▁Ta	-9.04661
▁So	-9.04661
▁actress	-9.0469
pur	-9.04724
▁working	-9.04795
ger	-9.04867
op	-9.05005
▁feature	-9.05009
▁Democratic	-9.05087
▁performed	-9.05097
▁software	-9.05237
▁rugby	-9.05268
io	-9.05515
▁light	-9.05529
▁Pa	-9.05547
▁systems	-9.05549
vo	-9.05655
▁Japan	-9.05686
▁metal	-9.05812
▁half	-9.06134
he	-9.06334
tra	-9.06407
▁Some	-9.06412
che	-9.06687
▁hit	-9.06726
▁Rock	-9.0673
▁broadcast	-9.06788
ran	-9.06843
▁Columbia	-9.06904
▁industry	-9.0699
▁Or	-9.07204
▁sometimes	-9.07219
ey	-9.07328
▁Ma	-9.07435
Y	-9.07477
▁b	-9.07678
▁ten	-9.07707
▁Women	-9.07749
year	-9.07816
▁stage	-9.07843
▁Do	-9.07878
▁model	-9.08111
▁Chicago	-9.08243
▁protein	-9.08314
▁primarily	-9.08343
▁western	-9.08366
▁Ko	-9.08385
also	-9.08472
▁1999	-9.08772
▁without	-9.08795
ko	-9.09041
▁way	-9.09167
▁26	-9.09461
▁Festival	-9.09479
▁programs	-9.09754
▁case	-9.09761
▁Government	-9.09815
ig	-9.09957
▁eight	-9.09958
tu	-9.10111
za	-9.10196
▁musical	-9.10276
▁(19	-9.10277
▁medal	-9.10315
▁serving	-9.10395
less	-9.10424
▁individual	-9.10692
▁1997	-9.10866
▁commune	-9.10968
▁Charles	-9.11062
▁provides	-9.11122
▁province	-9.11289
ung	-9.11301
▁example	-9.11323
▁me	-9.11413
▁annual	-9.11456
▁My	-9.11625
▁From	-9.11729
▁Scotland	-9.11859
▁Scottish	-9.12211
▁Law	-9.12235
▁Dutch	-9.12356
au	-9.12551
▁division	-9.1281
tor	-9.12876
▁president	-9.13203
▁White	-9.13322
▁Force	-9.13336
▁active	-9.13367
▁Pe	-9.13383
▁Men	-9.13401
▁Mark	-9.13401
▁28	-9.13469
▁27	-9.13552
ship	-9.13564
▁every	-9.13855
▁old	-9.13947
▁white	-9.14148
▁together	-9.14191
▁v	-9.14349
▁sp	-9.14626
▁Bar	-9.1464
▁singles	-9.14664
▁take	-9.14673
▁1991	-9.14755
▁Province	-9.14756
▁computer	-9.14859
mon	-9.14909
▁Ben	-9.15106
▁Irish	-9.15112
▁Radio	-9.15172
▁union	-9.15178
▁notable	-9.1538
▁previous	-9.1541
we	-9.15424
▁Art	-9.15627
▁Ontario	-9.15824
ot	-9.15875
▁channel	-9.15886
ow	-9.15964
▁river	-9.15979
ell	-9.1614
ong	-9.16276
▁health	-9.16401
▁snail	-9.16501
▁basketball	-9.16507
▁Su	-9.16515
▁municipality	-9.16515
▁Town	-9.16626
▁Y	-9.16628
▁Pan	-9.16728
ology	-9.16749
rs	-9.16834
▁Valley	-9.16963
▁Professor	-9.16976
▁2,	-9.16986
ella	-9.17049
▁schools	-9.17059
▁ship	-9.17109
bi	-9.17126
▁however	-9.17416
▁awarded	-9.17482
ization	-9.17493
▁Science	-9.17549
▁albums	-9.17817
▁Bi	-9.17825
▁launched	-9.17885
▁leading	-9.17895
▁gold	-9.17895
yl	-9.1795
▁referred	-9.17962
▁generally	-9.18212
▁Places	-9.18236
▁Although	-9.18288
▁success	-9.183
▁championship	-9.18305
▁performance	-9.18516
▁multi	-9.18618
▁winning	-9.18663
▁provide	-9.18675
▁involved	-9.18791
▁Har	-9.18838
▁Star	-9.19072
ub	-9.19077
▁29	-9.19096
▁again	-9.19133
▁Ohio	-9.19136
▁appointed	-9.19145
▁editor	-9.19164
▁others	-9.19308
▁though	-9.19357
▁Southern	-9.19492
▁father	-9.19523
-19	-9.19578
▁elections	-9.19625
▁market	-9.19703
▁According	-9.1973
▁point	-9.20009
▁Am	-9.20157
▁primary	-9.20779
▁gene	-9.20793
▁replaced	-9.21125
▁added	-9.21218
▁win	-9.21555
▁sound	-9.21563
▁via	-9.2161
▁Board	-9.21638
▁When	-9.21699
ron	-9.22058
▁result	-9.22093
▁variety	-9.22255
▁successful	-9.22403
▁management	-9.22833
▁Director	-9.22915
ts	-9.22939
▁Asia	-9.23
▁finished	-9.23081
▁Illinois	-9.23176
▁young	-9.23431
▁signed	-9.23458
▁roles	-9.23465
off	-9.23484
lan	-9.23504
▁match	-9.23522
mp	-9.23525
▁1993	-9.23526
▁format	-9.23755
▁players	-9.23882
▁technology	-9.23915
▁structure	-9.23959
▁1998	-9.24087
▁Coast	-9.24184
▁does	-9.24411
hi	-9.24613
▁senior	-9.25003
oc	-9.25124
ft	-9.25138
▁whose	-9.25233
▁1988	-9.25287
ata	-9.25304
mi	-9.25309
▁shows	-9.25317
▁Inc	-9.25416
▁m	-9.25572
▁space	-9.25609
▁collection	-9.25642
▁Lord	-9.25662
▁inter	-9.25686
well	-9.257
▁digital	-9.25793
ence	-9.25823
▁mollusk	-9.25838
hu	-9.25864
▁fire	-9.25898
▁associated	-9.25912
▁formerly	-9.25993
ris	-9.26155
ay	-9.26168
▁aircraft	-9.26269
▁host	-9.26345
▁Ja	-9.26391
▁Republican	-9.26423
▁We	-9.26437
▁Lu	-9.26727
▁low	-9.26795
▁CD	-9.26845
▁Year	-9.26923
▁even	-9.26965
ten	-9.26968
▁Hot	-9.27065
ex	-9.27146
ical	-9.27157
▁Brown	-9.27186
ai	-9.27194
▁either	-9.27305
▁Martin	-9.27309
▁Bank	-9.2745
▁BBC	-9.27486
▁50	-9.27566
si	-9.27606
▁recording	-9.27658
▁eastern	-9.27742
▁access	-9.27751
han	-9.27853
ius	-9.27867
▁professor	-9.27869
▁hockey	-9.2803
▁Top	-9.2807
▁red	-9.28076
▁Sea	-9.28167
du	-9.28192
▁Po	-9.28244
▁unit	-9.28252
mar	-9.28257
▁Research	-9.28273
▁Smith	-9.28314
▁Museum	-9.28355
chi	-9.28426
▁Network	-9.28438
▁Mexico	-9.28517
▁40	-9.28531
lu	-9.28562
▁artists	-9.28621
▁natural	-9.28627
▁2012.	-9.28673
▁Old	-9.28682
▁tracks	-9.28761
▁2009.	-9.28917
▁Most	-9.2894
ji	-9.29168
▁island	-9.29234
▁Cerambycidae	-9.29333
▁2010.	-9.29337
▁Day	-9.2944
▁Saint	-9.29444
▁parish	-9.2961
▁approximately	-9.29657
▁brother	-9.2977
▁female	-9.29772
▁tour	-9.2981
▁Mac	-9.29864
▁neighborhood	-9.29991
od	-9.30046
▁Series	-9.30054
▁action	-9.30135
▁Region	-9.30221
▁meters	-9.30224
▁musician	-9.30236
▁least	-9.30239
har	-9.30248
day	-9.30292
▁introduced	-9.30365
▁groups	-9.30379
▁Creek	-9.30409
▁living	-9.30489
▁Asian	-9.30559
▁Public	-9.30606
▁Corporation	-9.30612
▁capital	-9.30627
▁lost	-9.30758
▁rights	-9.3077
▁board	-9.30788
▁By	-9.30884
▁see	-9.30916
▁once	-9.31077
▁issues	-9.31116
sen	-9.31139
▁training	-9.31254
▁Sri	-9.3129
▁Lee	-9.31302
▁degree	-9.31324
▁Chief	-9.31537
▁composed	-9.31613
▁2013.	-9.31693
▁closed	-9.31699
▁mainly	-9.31725
ru	-9.31771
▁runs	-9.31804
po	-9.31834
▁products	-9.31879
▁2018	-9.31923
▁Theater	-9.31961
▁founder	-9.31968
▁2011.	-9.31989
▁Other	-9.32036
▁fifth	-9.32057
▁cover	-9.32595
ee	-9.3261
tri	-9.32665
▁online	-9.32709
sha	-9.3273
▁executive	-9.32732
▁real	-9.32773
▁Ni	-9.32813
▁date	-9.32846
▁Vi	-9.32884
▁2014.	-9.32915
▁Arts	-9.32917
▁wide	-9.32948
ium	-9.33025
▁Michigan	-9.33048
▁traditional	-9.33115
▁ice	-9.33236
tion	-9.33239
om	-9.33307
▁academic	-9.33346
tin	-9.3339
▁medical	-9.33432
▁Sam	-9.33546
ach	-9.33636
▁significant	-9.33689
▁Ga	-9.33796
▁USA	-9.33822
▁Open	-9.33931
town	-9.33955
▁Big	-9.341
▁seen	-9.34264
▁2015.	-9.34356
▁upon	-9.34383
▁Love	-9.34413
▁civil	-9.34435
▁never	-9.34467
aceae	-9.34522
▁Railway	-9.3457
▁taken	-9.34635
▁website	-9.34635
▁Du	-9.34695
▁Te	-9.34736
▁association	-9.34807
ov	-9.34827
▁Olympic	-9.34875
▁companies	-9.34894
000	-9.34952
ney	-9.34953
gi	-9.34969
und	-9.34991
ble	-9.35002
▁self	-9.35022
▁al	-9.35054
▁With	-9.3509
ities	-9.35102
▁Jersey	-9.35111
▁must	-9.35205
▁Service	-9.35232
▁followed	-9.35273
▁Ke	-9.35289
▁highest	-9.35291
ward	-9.35322
▁buildings	-9.35369
▁situated	-9.35371
▁less	-9.35575
▁location	-9.35589
▁1992	-9.35932
▁Georgia	-9.35943
▁matches	-9.36049
▁solo	-9.36088
▁Ri	-9.36126
▁person	-9.36238
▁2008.	-9.36269
▁Port	-9.36276
▁movie	-9.36399
▁running	-9.36426
ating	-9.36489
▁Tom	-9.36581
▁close	-9.36753
▁how	-9.36892
▁featuring	-9.36995
▁Mc	-9.36999
gen	-9.37121
▁Committee	-9.37172
▁2007.	-9.37312
▁hand	-9.37317
ze	-9.37342
▁material	-9.37349
▁Massachusetts	-9.37394
▁en	-9.37415
▁next	-9.37527
▁park	-9.3753
ek	-9.37563
▁Mary	-9.37623
red	-9.37648
▁further	-9.37751
▁Line	-9.37757
▁ran	-9.37823
▁pop	-9.37827
berg	-9.37847
▁constituency	-9.37973
▁anti	-9.38017
▁returned	-9.38067
▁Gold	-9.38084
▁3,	-9.38275
▁parts	-9.38302
ap	-9.38339
▁EP	-9.3851
▁Senate	-9.38521
▁racing	-9.38556
▁completed	-9.38592
▁mostly	-9.38608
ino	-9.38681
▁leader	-9.38691
▁numerous	-9.38735
house	-9.38794
▁Sydney	-9.38825
▁While	-9.38841
▁Japanese	-9.38856
▁2016.	-9.38931
ny	-9.38978
▁trade	-9.39016
don	-9.39102
▁Education	-9.39128
▁4,	-9.39132
▁study	-9.39175
20	-9.39211
▁1950	-9.39273
▁food	-9.39381
let	-9.39416
ini	-9.39544
port	-9.39607
▁Tamil	-9.39609
▁Bre	-9.39622
▁court	-9.39665
▁Pacific	-9.39714
kin	-9.39886
▁fiction	-9.39903
▁31	-9.39976
▁Sun	-9.40042
▁states	-9.40051
▁Joseph	-9.40099
▁firm	-9.40139
cy	-9.40215
▁Avenue	-9.40232
▁construction	-9.40242
▁Don	-9.40309
of	-9.4033
ola	-9.40384
bu	-9.4041
▁Henry	-9.40653
▁Commission	-9.40668
▁En	-9.40669
▁Blue	-9.40847
▁Sha	-9.40891
▁1995	-9.40943
ize	-9.40944
▁Per	-9.40944
ath	-9.41003
▁Bra	-9.41096
▁cricket	-9.41141
▁appearance	-9.41397
▁Their	-9.41422
▁Under	-9.41478
▁theater	-9.41536
▁Bill	-9.41547
▁Ex	-9.41575
▁Minnesota	-9.41612
▁days	-9.41866
▁1994	-9.41908
▁cast	-9.41919
▁ma	-9.42045
▁legal	-9.42124
▁Governor	-9.4217
▁Ra	-9.42281
lic	-9.4236
out	-9.42375
gar	-9.4239
▁Par	-9.42489
▁itself	-9.42533
▁base	-9.4255
▁manager	-9.42566
▁1987	-9.42672
▁placed	-9.42698
▁2017.	-9.42735
▁voice	-9.42824
▁Pat	-9.42889
▁journal	-9.43002
old	-9.4302
▁federal	-9.43059
▁Britain	-9.43155
▁Tri	-9.43169
fa	-9.43235
▁organized	-9.43368
▁Che	-9.43377
▁Major	-9.43447
low	-9.43459
▁hosted	-9.43537
▁Sal	-9.43546
▁miles	-9.43602
ful	-9.43712
▁continued	-9.43745
▁Frank	-9.43768
pi	-9.4381
▁property	-9.43817
▁comic	-9.43864
ther	-9.44107
ring	-9.44129
spite	-9.4418
tal	-9.44394
▁Dan	-9.44674
▁culture	-9.44766
▁Congress	-9.44859
▁fictional	-9.44929
▁lives	-9.44949
head	-9.44993
ier	-9.44998
ara	-9.4508
▁Sir	-9.45121
▁Toronto	-9.45197
jo	-9.45211
gu	-9.4524
▁code	-9.45294
▁focus	-9.45348
-20	-9.45466
▁wife	-9.45496
▁episodes	-9.45613
▁section	-9.45658
▁endemic	-9.45726
▁Jo	-9.45733
ng	-9.45906
▁subfamily	-9.45969
▁past	-9.46063
▁multiple	-9.46107
▁standard	-9.46141
nt	-9.46193
▁characters	-9.46284
▁la	-9.463
▁contract	-9.46313
▁1985	-9.46333
▁Media	-9.46475
▁complex	-9.46523
▁front	-9.46531
▁operations	-9.46562
▁Middle	-9.4665
ani	-9.46673
▁Wood	-9.46782
▁200	-9.46845
▁regular	-9.46959
▁selected	-9.46984
▁Labor	-9.47116
▁refers	-9.47129
ik	-9.47224
▁create	-9.47461
▁Un	-9.47518
▁writing	-9.47562
▁organizations	-9.47594
▁far	-9.47645
▁2013,	-9.47668
▁provided	-9.4767
▁Cor	-9.47768
ula	-9.47893
50	-9.47915
▁2016,	-9.47919
▁news	-9.47946
▁limited	-9.47976
▁Young	-9.48134
▁outside	-9.48151
▁movement	-9.48223
cus	-9.48249
▁fish	-9.48268
fer	-9.48326
▁Civil	-9.48368
▁Mor	-9.48412
▁Eastern	-9.48528
car	-9.4856
fe	-9.48767
American	-9.4882
▁Health	-9.48969
▁nominated	-9.49023
▁recognized	-9.4907
ev	-9.49116
▁go	-9.49503
▁Chinese	-9.49566
▁Can	-9.49581
cha	-9.49658
▁Fa	-9.49714
▁journalist	-9.4986
▁1984	-9.49909
▁1989	-9.49909
▁Pre	-9.49959
▁help	-9.49995
▁my	-9.50025
▁separate	-9.50102
▁jazz	-9.50118
▁Indiana	-9.5021
▁museum	-9.50219
▁Ver	-9.50221
▁hard	-9.50231
uk	-9.50267
ff	-9.50275
▁Gar	-9.50292
▁Edward	-9.50305
▁2015,	-9.50329
▁regional	-9.50379
▁operating	-9.50434
▁awards	-9.50482
▁changed	-9.5055
▁You	-9.50557
▁Islands	-9.50603
▁change	-9.50646
▁source	-9.50648
▁Victoria	-9.50711
▁ever	-9.50733
▁guitar	-9.50752
▁Ad	-9.50849
ab	-9.50862
gg	-9.51008
▁especially	-9.51023
bb	-9.51027
▁2006.	-9.51056
▁famous	-9.51091
▁premiered	-9.51157
▁representing	-9.51236
▁2011,	-9.51244
▁campaign	-9.51457
ren	-9.51479
ator	-9.51522
Z	-9.51529
▁Mer	-9.51573
▁nine	-9.51698
qui	-9.51702
▁Home	-9.51819
▁compilation	-9.51848
▁Wisconsin	-9.51899
▁Gu	-9.51903
▁2012,	-9.51909
▁Missouri	-9.52002
▁daughter	-9.52002
▁saw	-9.52057
▁newspaper	-9.52193
▁2014,	-9.52222
▁Tu	-9.5226
▁Many	-9.52273
▁Scott	-9.52283
▁1982	-9.52287
▁Second	-9.52291
▁k	-9.52381
▁electronic	-9.52392
▁guitarist	-9.52413
▁humans	-9.52433
▁Sports	-9.52498
gon	-9.52665
▁star	-9.52752
▁majority	-9.52863
▁Two	-9.52954
▁seasons	-9.52955
▁worldwide	-9.53091
▁forms	-9.53122
▁particular	-9.53129
▁Ab	-9.53157
▁Ju	-9.53174
▁better	-9.53213
▁content	-9.53243
ice	-9.53381
▁earlier	-9.53399
▁specific	-9.53484
for	-9.53561
ries	-9.53759
▁historical	-9.53782
▁Harry	-9.53819
ning	-9.53849
▁Representatives	-9.53851
▁prior	-9.53895
▁Long	-9.53988
▁Foundation	-9.54004
▁personal	-9.54025
▁Land	-9.54047
▁oldest	-9.54047
▁winner	-9.54083
▁Spanish	-9.54135
▁means	-9.54145
▁d	-9.54162
▁product	-9.54186
ett	-9.54227
▁color	-9.54344
▁7,	-9.54389
▁Legislative	-9.54407
▁mixed	-9.54596
▁composer	-9.54605
ure	-9.54663
ensis	-9.54679
▁overall	-9.54719
▁2010,	-9.54723
▁Queensland	-9.5477
▁Hockey	-9.54817
▁Van	-9.5483
▁rules	-9.54836
ena	-9.54911
▁5,	-9.54983
nes	-9.55006
▁Hu	-9.5519
ding	-9.55351
ari	-9.5541
▁Queen	-9.55421
▁responsible	-9.55453
10	-9.55546
▁Cha	-9.55546
▁married	-9.5556
▁stories	-9.55668
▁university	-9.55773
▁brand	-9.55776
▁Bu	-9.55824
▁plants	-9.56044
▁Country	-9.56052
▁Battle	-9.56165
▁recent	-9.56224
▁chief	-9.56279
▁interest	-9.56296
▁People	-9.56308
▁economic	-9.56425
▁2009,	-9.56489
▁Melbourne	-9.56524
▁Conference	-9.56577
▁Nations	-9.56713
▁Russian	-9.56776
▁Boston	-9.5681
▁Philippines	-9.56851
▁lower	-9.5689
▁Oregon	-9.569
▁Chi	-9.56918
tz	-9.56939
▁Netherlands	-9.56954
▁formation	-9.56975
▁Bridge	-9.57085
je	-9.5715
▁practice	-9.57155
▁Korea	-9.57162
▁Ser	-9.57237
stone	-9.5726
▁Development	-9.57339
▁2017,	-9.57363
tro	-9.57421
▁police	-9.57496
▁strong	-9.5759
▁ca	-9.57742
▁wrote	-9.57829
▁Latin	-9.57882
▁activities	-9.5804
-1	-9.58065
▁bank	-9.58074
▁Fort	-9.58096
back	-9.58108
end	-9.58115
▁2008,	-9.58303
Q	-9.58361
,"	-9.58563
▁Entertainment	-9.58587
▁silver	-9.58591
▁uses	-9.5862
▁Band	-9.58645
▁Show	-9.58655
11	-9.58697
dale	-9.58706
▁2007,	-9.58808
▁1979	-9.58938
▁months	-9.58968
▁prominent	-9.58973
ph	-9.59003
▁typically	-9.59023
▁bridge	-9.59034
ib	-9.5905
0	-9.59095
▁student	-9.59229
▁almost	-9.59253
▁recently	-9.59325
▁return	-9.59366
▁certain	-9.5947
▁Jones	-9.59499
▁particularly	-9.59528
▁Area	-9.59564
▁word	-9.59593
▁acquired	-9.59603
era	-9.5968
▁Jack	-9.59777
▁crime	-9.59813
▁Water	-9.59876
▁Stadium	-9.59971
▁Sch	-9.59979
▁subject	-9.59994
▁alternative	-9.60004
▁financial	-9.60025
▁baseball	-9.6003
▁offers	-9.6029
▁should	-9.60451
▁Si	-9.6056
▁presented	-9.60646
▁bi	-9.60723
▁sixth	-9.60726
▁great	-9.60838
▁6,	-9.60857
▁Francisco	-9.6088
▁widely	-9.60977
▁rather	-9.60982
▁Greek	-9.61037
▁act	-9.61118
▁care	-9.61188
▁8,	-9.61195
▁Chart	-9.61195
ker	-9.6124
all	-9.61269
▁status	-9.61319
▁bar	-9.61557
▁dance	-9.61618
▁officer	-9.61637
▁candidate	-9.61657
▁1972	-9.61719
▁Pakistan	-9.6173
▁copies	-9.61767
▁remains	-9.61776
▁Little	-9.61821
▁lies	-9.61849
ological	-9.61905
ita	-9.61946
ose	-9.61949
▁week	-9.62031
mal	-9.62039
ki	-9.62175
▁studies	-9.62221
▁t	-9.62271
▁Life	-9.62304
▁spent	-9.62314
▁Premier	-9.62326
▁1978	-9.62391
▁Winter	-9.62418
▁Team	-9.62502
▁Ti	-9.62507
▁Nepal	-9.62512
▁g	-9.62547
▁surface	-9.62615
over	-9.62738
▁thought	-9.62794
▁cell	-9.62854
▁Member	-9.62884
▁Louis	-9.6296
▁additional	-9.62965
lon	-9.62987
▁test	-9.63065
tus	-9.63153
▁woman	-9.63183
▁turn	-9.63189
▁Pradesh	-9.63251
▁documentary	-9.63259
▁we	-9.6337
▁Miss	-9.63387
ag	-9.63444
▁remained	-9.63678
▁ended	-9.63718
gan	-9.63731
▁complete	-9.6377
▁appearances	-9.63875
▁extinct	-9.63886
▁1974	-9.63942
▁beginning	-9.64178
▁sister	-9.64184
▁distributed	-9.642
▁Live	-9.64217
vis	-9.64379
▁intended	-9.64513
form	-9.64569
▁male	-9.64604
▁serve	-9.64656
▁mountain	-9.64661
like	-9.64669
▁becoming	-9.64794
▁champion	-9.64831
▁Station	-9.64876
▁course	-9.6492
▁policy	-9.64992
TV	-9.65077
▁come	-9.65097
ura	-9.65108
ery	-9.65173
▁block	-9.65214
▁council	-9.65273
pp	-9.65314
illa	-9.65405
▁Za	-9.65405
ped	-9.65451
▁Jr	-9.65476
▁Cal	-9.65577
▁10,	-9.65605
▁units	-9.65728
▁Tennessee	-9.65756
▁dedicated	-9.65756
▁forces	-9.65779
zi	-9.65781
▁Channel	-9.65816
▁middle	-9.65823
▁1986	-9.65841
▁society	-9.65933
▁platform	-9.65978
▁1930	-9.66011
▁good	-9.66066
▁key	-9.66093
▁names	-9.66122
▁night	-9.66245
board	-9.66319
▁Spain	-9.66491
mat	-9.66533
▁mo	-9.66534
▁sc	-9.66759
▁2005.	-9.66775
▁Technology	-9.66823
pro	-9.66872
lam	-9.67006
▁himself	-9.67128
▁programming	-9.67253
▁Malaysia	-9.67259
tes	-9.67261
tter	-9.67295
▁Federation	-9.67363
▁Secretary	-9.67368
▁minor	-9.67395
▁officially	-9.67451
▁1977	-9.67456
▁12,	-9.67511
▁Rugby	-9.67541
zo	-9.67586
▁battle	-9.67667
▁Bur	-9.67676
ions	-9.67751
▁honor	-9.67762
so	-9.67847
▁Free	-9.67847
▁guest	-9.6785
▁train	-9.67854
▁branch	-9.67861
▁article	-9.67885
▁Colorado	-9.67963
▁concept	-9.67994
▁coast	-9.67999
mm	-9.68023
▁2006,	-9.68033
▁cultural	-9.68066
oma	-9.68185
▁web	-9.68186
▁Fi	-9.68211
▁Ru	-9.68325
ica	-9.68341
use	-9.68354
act	-9.68364
▁larger	-9.68385
▁Hospital	-9.68385
can	-9.68458
00	-9.6849
▁points	-9.68566
30	-9.68615
▁cases	-9.68623
▁operates	-9.68799
▁behind	-9.68993
ix	-9.69005
▁eventually	-9.69007
ep	-9.69102
▁semi	-9.69124
▁snails	-9.69184
more	-9.69196
ase	-9.69216
▁Ram	-9.69283
▁Gi	-9.69511
▁Press	-9.69609
▁Fox	-9.69634
ual	-9.69706
vin	-9.69723
▁Tra	-9.6975
▁FM	-9.69862
▁headquarters	-9.6991
▁lived	-9.70159
ple	-9.70164
▁contemporary	-9.70218
▁Indonesia	-9.70237
▁1975	-9.70275
▁Atlantic	-9.70325
sch	-9.7034
▁takes	-9.70368
▁staff	-9.70409
fi	-9.70443
ect	-9.70479
▁green	-9.70526
her	-9.70537
▁Beach	-9.70614
▁Chris	-9.70664
ram	-9.70677
▁put	-9.70775
▁size	-9.70786
▁township	-9.70836
▁tennis	-9.70843
▁Inter	-9.70845
▁11,	-9.71065
▁higher	-9.71133
top	-9.71136
▁nearby	-9.71143
▁Mountain	-9.71189
▁Community	-9.7121
if	-9.71251
hy	-9.71255
▁settlement	-9.71272
▁1968	-9.71287
▁Daniel	-9.7135
▁double	-9.71386
▁Baseball	-9.71399
▁vote	-9.71465
▁Russia	-9.71479
bar	-9.71511
ile	-9.71587
▁away	-9.71611
wi	-9.71626
pt	-9.71683
▁Federal	-9.71772
▁face	-9.71778
▁engine	-9.71788
▁attended	-9.71924
▁festival	-9.71984
tan	-9.72005
sk	-9.72007
▁scientific	-9.72107
▁1973	-9.7216
▁Eu	-9.723
▁Office	-9.72336
▁meaning	-9.72447
▁And	-9.72503
▁elements	-9.72604
▁types	-9.72692
▁Cross	-9.72715
▁summer	-9.72784
▁Good	-9.7285
▁15,	-9.72852
wing	-9.72976
▁Korean	-9.72988
ct	-9.73023
▁terms	-9.73082
▁14,	-9.73084
▁Col	-9.73187
led	-9.73208
▁Kentucky	-9.73223
ide	-9.73253
▁bronze	-9.7335
▁Time	-9.73358
▁Special	-9.73417
▁suburb	-9.73457
ese	-9.7347
▁initially	-9.73497
▁opening	-9.73534
▁earned	-9.73534
▁Book	-9.73567
▁oil	-9.73579
▁defeated	-9.73658
▁Mu	-9.73809
shi	-9.73847
▁God	-9.73854
▁communities	-9.73861
▁Sp	-9.73883
▁today	-9.73885
▁Route	-9.73916
▁Far	-9.7401
▁Stephen	-9.74183
▁Swedish	-9.74229
▁Prior	-9.7425
▁score	-9.74282
▁Wa	-9.74286
▁2004.	-9.74313
row	-9.74357
▁border	-9.74372
▁rural	-9.74375
▁global	-9.74375
▁holds	-9.74397
▁Andrew	-9.74401
▁Maryland	-9.74414
ors	-9.74426
▁transport	-9.74475
pha	-9.74485
▁1983	-9.74533
▁Is	-9.74674
▁Arizona	-9.7476
▁BC	-9.74797
king	-9.74821
wan	-9.74891
▁Ku	-9.74903
ative	-9.74909
▁gr	-9.74981
▁stations	-9.75036
▁little	-9.75152
▁subsequently	-9.75155
▁wood	-9.75215
▁era	-9.75223
▁start	-9.75266
▁direct	-9.753
▁Mel	-9.75318
▁function	-9.75485
▁cities	-9.75504
▁religious	-9.75566
▁secondary	-9.75648
ox	-9.75654
▁rest	-9.75656
▁covers	-9.7568
▁Min	-9.75718
▁System	-9.75722
ane	-9.75743
▁Junior	-9.75798
▁9,	-9.75808
▁campus	-9.75811
▁Earth	-9.75816
▁languages	-9.75826
▁force	-9.75871
▁forward	-9.75877
▁treatment	-9.7588
▁encoded	-9.75891
▁Post	-9.75941
▁Kong	-9.76014
▁route	-9.76052
unt	-9.76124
▁killed	-9.76129
▁according	-9.76154
▁21,	-9.76155
▁Q	-9.76211
▁child	-9.76262
▁taking	-9.76325
▁need	-9.76397
▁reviews	-9.76398
In	-9.7646
▁Night	-9.76488
▁shot	-9.76536
tis	-9.76565
▁13,	-9.76642
▁Ban	-9.76644
tur	-9.76658
uff	-9.76707
ves	-9.76725
tt	-9.76747
▁opera	-9.76794
▁theory	-9.76859
40	-9.76884
▁ancient	-9.76979
▁Brazil	-9.77016
▁renamed	-9.77062
▁Ki	-9.771
▁tree	-9.77105
water	-9.77128
my	-9.77142
▁FC	-9.77153
▁Kar	-9.77157
war	-9.77268
▁Johnson	-9.77371
▁Ph	-9.77472
▁records	-9.7748
▁energy	-9.77508
▁covered	-9.77555
▁micro	-9.77563
az	-9.77688
▁principal	-9.7784
▁Empire	-9.77841
▁III	-9.77903
xi	-9.77934
▁super	-9.78007
air	-9.7805
ign	-9.78099
ible	-9.78102
▁Santa	-9.78118
▁versions	-9.78189
kar	-9.78189
▁instead	-9.78228
▁Television	-9.78242
▁operation	-9.78274
cho	-9.78349
▁30,	-9.78441
▁results	-9.78592
▁soccer	-9.78611
▁houses	-9.7874
▁seats	-9.7878
▁discovered	-9.78874
▁Times	-9.78893
▁stone	-9.78908
▁1971	-9.78918
▁Found	-9.78953
cer	-9.78987
▁effects	-9.78996
iz	-9.79006
▁method	-9.7904
▁mother	-9.79047
ification	-9.79162
▁Cape	-9.79179
▁cricketer	-9.79193
▁Mount	-9.79201
▁Rome	-9.79222
▁owner	-9.79222
lus	-9.79248
▁Mon	-9.79255
profit	-9.79257
▁Highway	-9.79262
SA	-9.79312
▁Commonwealth	-9.79315
▁Williams	-9.79354
▁chain	-9.79385
▁22,	-9.7942
osa	-9.7942
▁Kansas	-9.79452
ston	-9.79456
▁noted	-9.7946
yn	-9.7947
election	-9.79499
▁Justice	-9.79521
▁sport	-9.7953
▁represents	-9.79566
▁Prize	-9.79592
▁possible	-9.79722
▁Windows	-9.79722
▁poet	-9.79722
▁industrial	-9.79757
tch	-9.79801
▁Ve	-9.79845
▁cross	-9.79856
▁25,	-9.79882
▁Up	-9.79949
▁managed	-9.79978
▁arts	-9.80057
ists	-9.8007
▁Over	-9.80097
pl	-9.80124
▁distribution	-9.80266
▁para	-9.80276
▁reported	-9.80337
▁architecture	-9.8034
▁26,	-9.80412
▁Hong	-9.80493
▁Castle	-9.80568
▁security	-9.80588
▁Power	-9.80614
▁hospital	-9.80723
▁Supreme	-9.80744
▁above	-9.80745
▁cur	-9.80763
ric	-9.80785
▁find	-9.80841
▁bus	-9.80847
▁1981	-9.80851
▁Lanka	-9.80854
▁Sta	-9.80863
▁Journal	-9.8093
ano	-9.81057
▁weeks	-9.81077
▁travel	-9.81095
▁positive	-9.81193
▁1962	-9.81201
▁1976	-9.81246
▁changes	-9.81297
▁NFL	-9.81318
▁required	-9.81418
peaked	-9.81432
▁entered	-9.81451
val	-9.81475
▁increase	-9.81529
su	-9.81538
tar	-9.81567
van	-9.81586
▁1920	-9.81599
▁engineering	-9.81737
▁get	-9.81766
▁List	-9.81787
▁28,	-9.81936
par	-9.81967
▁whom	-9.81992
▁application	-9.82066
▁purpose	-9.82076
▁hip	-9.821
IS	-9.82121
▁charts	-9.82137
▁19,	-9.82211
▁1969	-9.82229
▁27,	-9.82246
▁cut	-9.82254
▁Philadelphia	-9.82263
▁Ed	-9.82269
▁Mad	-9.8227
sia	-9.82316
▁future	-9.82334
art	-9.82391
▁titles	-9.82426
▁Er	-9.8243
▁feet	-9.82531
▁constructed	-9.82566
bra	-9.82613
13	-9.82647
▁issued	-9.82654
▁peak	-9.82665
▁twenty	-9.82751
▁raised	-9.82815
▁Singapore	-9.82821
▁o	-9.82846
tom	-9.82876
▁tax	-9.82891
▁text	-9.83023
ou	-9.83439
▁Soviet	-9.83453
ray	-9.83495
▁performances	-9.83498
▁shown	-9.83545
▁le	-9.83561
▁midfielder	-9.83594
▁2018.	-9.83623
▁Out	-9.83634
▁surrounding	-9.83634
▁mission	-9.83797
des	-9.83815
▁23,	-9.83836
▁extended	-9.83939
▁directly	-9.83945
▁Jim	-9.83951
▁Joe	-9.84042
▁16,	-9.84092
▁paper	-9.84171
▁Following	-9.84301
▁issue	-9.84329
▁Steve	-9.84347
▁Bell	-9.84349
▁entire	-9.84367
▁allows	-9.8437
▁20,	-9.84521
▁DVD	-9.84584
▁response	-9.84585
▁Cre	-9.84607
▁projects	-9.84653
known	-9.84708
▁command	-9.84743
ju	-9.84793
▁Bob	-9.8482
ette	-9.84907
▁Forest	-9.84936
▁estate	-9.8495
▁1940	-9.8502
▁heavy	-9.85126
▁physical	-9.85172
▁thus	-9.85311
iv	-9.85318
ole	-9.85334
len	-9.85358
ec	-9.85421
▁appears	-9.85467
ick	-9.85473
▁Will	-9.8548
▁starting	-9.85543
▁24,	-9.85673
▁2003.	-9.85731
▁blood	-9.85731
ight	-9.85736
14	-9.85805
▁attack	-9.85808
▁spin	-9.85844
burg	-9.8586
▁brought	-9.8602
▁founding	-9.8609
▁Business	-9.86238
▁Mi	-9.8624
▁1964	-9.86294
▁educational	-9.86332
aw	-9.86366
sta	-9.86413
▁Head	-9.86425
▁move	-9.86453
▁box	-9.86455
▁highly	-9.86498
▁se	-9.86577
▁nature	-9.86602
▁Fire	-9.86634
▁500	-9.8665
▁Prince	-9.86678
▁facilities	-9.86744
▁length	-9.86806
▁Tar	-9.86837
ise	-9.86904
▁produce	-9.86916
▁Mike	-9.86976
▁hotel	-9.86993
yan	-9.87028
▁critics	-9.87136
▁pay	-9.87173
▁Dis	-9.87174
▁Oklahoma	-9.87182
▁2005,	-9.87201
▁Senior	-9.87255
▁split	-9.8726
▁Ash	-9.87289
▁Gra	-9.87312
ku	-9.87358
▁cells	-9.87373
ok	-9.8747
▁bo	-9.87472
▁Field	-9.8748
▁disease	-9.87554
▁Stone	-9.87575
ps	-9.87635
ned	-9.87669
▁applications	-9.87682
ory	-9.87745
ken	-9.87872
12	-9.87876
▁(18	-9.87877
duct	-9.87906
eg	-9.87906
▁dark	-9.87922
▁caused	-9.87942
▁2002.	-9.87976
▁End	-9.87983
▁Camp	-9.87984
▁60	-9.88025
win	-9.8803
light	-9.88113
▁follows	-9.88137
ington	-9.88189
▁youth	-9.88194
sion	-9.88203
songwriter	-9.88239
ala	-9.8824
▁franchise	-9.88358
▁street	-9.88377
▁Trust	-9.88381
gra	-9.88386
▁Fe	-9.88406
▁decided	-9.88411
▁agent	-9.8842
▁1967	-9.88429
▁impact	-9.88453
▁cost	-9.88501
▁supported	-9.88515
▁Pu	-9.8852
▁able	-9.88549
ef	-9.88632
▁songwriter	-9.88637
▁compete	-9.8865
▁Ch	-9.88651
ever	-9.88681
▁Studios	-9.88681
CA	-9.8875
▁sent	-9.88812
▁Jon	-9.88818
▁environment	-9.88836
▁Internet	-9.88882
▁More	-9.89053
▁Like	-9.89065
▁18,	-9.8909
▁vocals	-9.89375
▁Ocean	-9.89401
▁lake	-9.89419
ez	-9.89479
tive	-9.89491
▁effect	-9.89505
rum	-9.89551
▁offices	-9.89573
▁providing	-9.89623
▁lack	-9.89649
▁Ten	-9.89691
▁engineer	-9.89701
▁concert	-9.89837
▁Both	-9.89878
▁McC	-9.89929
▁Ministry	-9.89998
▁analysis	-9.89998
▁Program	-9.90007
▁Library	-9.90073
cher	-9.90138
▁Iowa	-9.90149
oo	-9.9016
▁1959	-9.90273
og	-9.90275
▁longer	-9.90278
▁administrative	-9.90299
ida	-9.90316
▁Raj	-9.90343
▁studied	-9.90375
▁basis	-9.90379
▁Police	-9.90384
▁below	-9.90386
▁Light	-9.90466
▁Ham	-9.90498
▁Jackson	-9.90547
ade	-9.90553
ified	-9.90612
▁goal	-9.90616
istic	-9.90664
▁17,	-9.90715
pri	-9.90744
▁latter	-9.90762
▁table	-9.90808
mit	-9.90812
gue	-9.90835
▁Game	-9.90846
ular	-9.90903
▁publication	-9.90903
▁Liberal	-9.90927
▁towards	-9.9093
▁participated	-9.90935
▁nearly	-9.90991
▁folk	-9.91055
ua	-9.91066
▁Val	-9.91116
25	-9.91222
▁Wi	-9.91225
▁cause	-9.9129
80	-9.91294
▁Each	-9.91315
▁Ray	-9.91345
He	-9.91403
▁Ac	-9.91437
▁w	-9.91455
▁forest	-9.91527
▁containing	-9.91566
▁love	-9.91593
▁Airport	-9.91618
ins	-9.9169
▁facility	-9.91742
▁Singles	-9.91803
▁News	-9.9183
▁king	-9.91866
▁Del	-9.91904
▁Mal	-9.9194
▁Pra	-9.92005
▁port	-9.92052
▁average	-9.92053
▁farm	-9.92053
▁prevent	-9.92101
eri	-9.92162
▁urban	-9.92336
▁Bishop	-9.92433
pan	-9.92433
▁environmental	-9.92438
▁Today	-9.92463
▁individuals	-9.92596
▁fact	-9.92639
q	-9.92641
▁Va	-9.92668
▁minister	-9.92749
▁Bal	-9.92764
-2	-9.92766
▁simply	-9.92896
▁Point	-9.9293
▁adult	-9.92965
▁reference	-9.92972
▁Oxford	-9.92973
uri	-9.93047
▁electoral	-9.93051
tle	-9.93149
▁Norwegian	-9.93178
▁Je	-9.93209
ologist	-9.93331
res	-9.93347
▁Paris	-9.93377
AC	-9.93426
▁29,	-9.93529
▁1966	-9.93542
▁Dar	-9.93548
▁ho	-9.93548
▁2000.	-9.93584
▁agency	-9.93596
now	-9.93604
▁allow	-9.93606
▁Comics	-9.93639
▁floor	-9.93727
▁Guinea	-9.93831
▁protect	-9.93851
▁runner	-9.93863
ious	-9.93872
▁visual	-9.93907
ae	-9.9393
15	-9.93934
▁Davis	-9.94005
▁1961	-9.94087
▁here	-9.94134
▁Metro	-9.94156
▁Victorian	-9.94205
▁Final	-9.94212
▁flowering	-9.94301
▁ranked	-9.94384
▁distance	-9.94419
Ma	-9.94453
▁Draft	-9.94459
tain	-9.94531
IC	-9.94575
▁Jewish	-9.94648
▁Pen	-9.94667
▁master	-9.94678
▁Mag	-9.94751
▁sales	-9.94756
▁horse	-9.94806
▁acid	-9.94839
▁committee	-9.94849
ip	-9.9485
nce	-9.94865
▁adopted	-9.94916
▁i	-9.94923
ue	-9.94937
▁unique	-9.9494
▁broadcasting	-9.95008
▁Play	-9.95028
▁foreign	-9.95246
▁money	-9.95261
▁yellow	-9.95482
▁Nigeria	-9.95544
▁designer	-9.95605
sp	-9.95628
▁flight	-9.95661
dic	-9.95706
▁Kan	-9.95712
ona	-9.95714
▁Three	-9.95727
star	-9.95779
▁moths	-9.95851
▁alongside	-9.95878
EC	-9.9592
▁du	-9.95926
▁literature	-9.9596
▁occurred	-9.95967
med	-9.9601
story	-9.96066
▁Studies	-9.96119
nder	-9.96131
ene	-9.96279
log	-9.96324
▁gas	-9.9634
▁stadium	-9.96441
▁Louisiana	-9.96442
▁graduated	-9.96457
▁library	-9.9652
▁kilometers	-9.96616
▁creation	-9.967
▁Com	-9.96712
▁Stra	-9.96752
ations	-9.96868
▁vi	-9.96879
▁Simon	-9.96887
▁tri	-9.96957
cia	-9.96977
▁remaining	-9.96985
▁partner	-9.97018
▁But	-9.97049
▁Ali	-9.97136
▁districts	-9.9715
▁clubs	-9.97152
▁decision	-9.97179
ada	-9.97241
▁search	-9.97249
ski	-9.97249
▁CEO	-9.97253
▁2001.	-9.97263
▁regions	-9.97267
60	-9.97279
RA	-9.97297
▁li	-9.97318
▁Microsoft	-9.97326
century	-9.97343
▁graduate	-9.97388
▁Cricket	-9.97406
▁mine	-9.97409
▁Golden	-9.97414
▁van	-9.97461
ability	-9.97486
▁represent	-9.97497
▁amount	-9.97543
▁Matt	-9.97583
iya	-9.97618
▁residential	-9.97655
sky	-9.97671
▁smaller	-9.97678
▁silent	-9.97736
ob	-9.97739
ash	-9.97789
▁rare	-9.9779
▁equipment	-9.97811
▁pair	-9.97843
▁call	-9.97891
▁camp	-9.97902
▁Sub	-9.97946
▁Mississippi	-9.97974
▁animated	-9.9803
▁themselves	-9.98056
▁proposed	-9.9806
▁hop	-9.98099
▁mayor	-9.98102
▁largely	-9.98114
▁parties	-9.9814
▁blue	-9.98151
▁trans	-9.98213
▁Borough	-9.98221
ens	-9.98223
▁Israel	-9.98233
lar	-9.98246
▁1958	-9.98254
▁chemical	-9.98268
▁peer	-9.98279
▁Ag	-9.98316
▁deep	-9.98327
▁view	-9.98381
▁1965	-9.98452
oid	-9.98466
▁critical	-9.98474
eo	-9.9848
▁store	-9.98486
▁disk	-9.9852
▁NCAA	-9.98547
▁broad	-9.98797
cc	-9.9881
rin	-9.98849
▁Social	-9.98868
▁Switzerland	-9.98874
▁done	-9.98877
▁appear	-9.98907
stra	-9.98968
▁Boy	-9.98983
▁plan	-9.98994
▁If	-9.99019
▁Vice	-9.99058
▁Independent	-9.99076
▁Human	-9.99138
▁quality	-9.99141
▁bird	-9.99162
▁failed	-9.99168
▁mis	-9.99184
▁debuted	-9.99204
▁Fu	-9.99228
▁license	-9.9927
▁Management	-9.99285
▁Defense	-9.99286
▁merged	-9.99308
▁drug	-9.99338
▁Welsh	-9.99405
▁comp	-9.9948
lock	-9.9951
▁residents	-9.99518
▁Hy	-9.99537
▁acts	-9.99549
ition	-9.99564
▁stop	-9.9964
formerly	-9.99651
▁portion	-9.99652
mic	-9.99655
dia	-9.99668
▁Taylor	-9.99698
press	-9.99699
▁Alexander	-9.99699
▁Lewis	-9.99706
set	-9.99745
▁Alabama	-9.99781
70	-9.99805
int	-9.9982
▁seventh	-9.99824
▁gave	-9.99894
ale	-9.99903
▁approach	-9.99933
▁1956	-9.99935
MA	-10
▁Project	-10.0004
mann	-10.001
▁architect	-10.001
▁Census	-10.0011
zz	-10.0012
▁Wall	-10.0018
▁Building	-10.002
▁Class	-10.0029
oon	-10.003
▁user	-10.0035
▁Elizabeth	-10.0036
▁activity	-10.0045
▁Wilson	-10.0047
▁medals	-10.0048
▁Mill	-10.0049
▁Originally	-10.0049
▁Down	-10.0049
▁designated	-10.0054
▁Medical	-10.0055
▁divided	-10.0057
▁Trans	-10.0057
▁Tim	-10.006
▁Tor	-10.0064
▁achieved	-10.0071
▁users	-10.0072
▁representative	-10.0073
ball	-10.0073
▁housing	-10.0078
▁belonging	-10.0079
hill	-10.0081
▁Jan	-10.0084
▁frequently	-10.0086
▁sequel	-10.0086
▁relationship	-10.009
▁affiliated	-10.0091
▁Main	-10.0092
▁levels	-10.0099
▁category	-10.0112
▁allowed	-10.0117
▁loss	-10.0117
kh	-10.0119
bel	-10.0125
tha	-10.013
▁growth	-10.0136
▁Disney	-10.0138
▁History	-10.0138
▁Executive	-10.0145
▁Pictures	-10.0149
bit	-10.0155
▁Ol	-10.0171
box	-10.0171
▁ha	-10.0172
▁Sunday	-10.0181
dra	-10.0185
▁account	-10.0185
▁defense	-10.0191
▁Nor	-10.0193
▁Anthony	-10.0196
▁Char	-10.0197
▁derived	-10.0199
▁scene	-10.0203
▁Prime	-10.0203
▁Sky	-10.0203
▁Master	-10.0204
ill	-10.0204
▁Ge	-10.0205
ero	-10.0206
ving	-10.0208
▁Mr	-10.0209
lum	-10.0213
▁device	-10.0219
90	-10.0222
▁vocalist	-10.0225
▁domestic	-10.023
▁headquartered	-10.024
▁lo	-10.0241
▁Fame	-10.0245
▁scored	-10.0245
▁Ron	-10.0249
▁defined	-10.0251
▁fall	-10.0253
▁direction	-10.0255
▁Manchester	-10.0255
▁gl	-10.0257
▁Order	-10.0259
▁Jean	-10.026
16	-10.0272
18	-10.0273
▁Born	-10.0275
▁conditions	-10.0278
net	-10.0279
▁experience	-10.0279
▁Ber	-10.0291
rus	-10.0299
ug	-10.0303
cle	-10.0305
▁Brian	-10.0307
rid	-10.0312
▁ABC	-10.0313
▁Kenya	-10.0315
▁applied	-10.0315
▁purchased	-10.0316
▁Christ	-10.0318
rick	-10.0318
▁problems	-10.0321
arm	-10.0328
▁1945	-10.035
▁Fair	-10.0351
▁Kent	-10.0358
ome	-10.0359
▁Cambridge	-10.0367
▁carried	-10.0376
▁Ger	-10.0384
▁Heart	-10.0385
▁promote	-10.0385
▁Eric	-10.0386
▁Rose	-10.0386
ration	-10.0386
▁refer	-10.0387
▁defender	-10.0408
▁consisted	-10.0408
ora	-10.0418
▁properties	-10.0419
▁Cy	-10.0421
▁unknown	-10.0421
▁2018,	-10.0423
▁capacity	-10.0427
▁might	-10.0429
▁Soccer	-10.0436
ient	-10.044
▁lines	-10.0443
▁Sh	-10.0443
▁succeeded	-10.0445
▁Mid	-10.045
▁occurs	-10.0453
▁bass	-10.0455
▁2004,	-10.0459
ax	-10.046
▁murder	-10.046
cul	-10.0461
ping	-10.0462
▁Family	-10.0462
▁focuses	-10.0462
▁soon	-10.0463
▁publisher	-10.0464
▁break	-10.0466
▁fruit	-10.0471
▁Security	-10.0479
▁tower	-10.0483
▁imp	-10.0484
▁Bel	-10.0487
▁Vol	-10.0488
▁families	-10.0488
▁stock	-10.0492
▁duo	-10.0495
▁value	-10.0497
▁mobile	-10.0497
eb	-10.0505
▁Dean	-10.0511
▁inspired	-10.0515
▁activist	-10.0523
▁Also	-10.0526
▁Philip	-10.0526
▁audience	-10.0532
▁soundtrack	-10.0532
▁Engineering	-10.0537
▁conference	-10.0537
ich	-10.0539
▁1952	-10.0541
▁ships	-10.0544
▁closely	-10.0548
▁address	-10.0549
▁fantasy	-10.0549
▁passed	-10.0555
▁Khan	-10.0556
▁1957	-10.0562
▁technical	-10.0562
▁mi	-10.0566
▁Earl	-10.0571
lly	-10.0572
▁Tony	-10.0573
▁drummer	-10.0576
▁Tre	-10.0582
alis	-10.0582
room	-10.0583
▁lyrics	-10.0583
▁Cu	-10.0588
AA	-10.059
▁expanded	-10.0595
▁1963	-10.0596
▁Dor	-10.0615
Ch	-10.0619
ria	-10.062
▁true	-10.0621
▁Bowl	-10.0628
23	-10.0631
▁Cro	-10.0633
▁licensed	-10.0637
▁materials	-10.0638
▁leaves	-10.0674
▁rail	-10.0675
▁continues	-10.0677
▁Sound	-10.0678
hal	-10.0678
cker	-10.0681
▁screen	-10.0684
▁Sar	-10.0691
▁nation	-10.0696
▁strip	-10.0696
cin	-10.0698
▁Conservative	-10.07
▁victory	-10.07
19	-10.07
▁Arthur	-10.07
▁joint	-10.0702
▁lawyer	-10.0711
▁mass	-10.0713
mus	-10.0714
gin	-10.0723
▁courts	-10.0726
▁Nu	-10.073
▁your	-10.0735
▁chairman	-10.0739
▁Ross	-10.075
▁older	-10.0751
▁cancer	-10.0753
▁talk	-10.0754
▁That	-10.0762
▁Danish	-10.0774
▁Cat	-10.0776
▁increased	-10.0777
▁sta	-10.0778
▁prison	-10.0785
▁sexual	-10.0785
▁turned	-10.0789
▁historian	-10.0789
▁simple	-10.0789
▁exchange	-10.0789
▁institutions	-10.0794
▁teaching	-10.0805
ei	-10.081
bal	-10.081
ye	-10.0814
▁growing	-10.0815
▁articles	-10.0819
▁adjacent	-10.0825
▁31,	-10.0829
dar	-10.0835
▁Age	-10.0835
▁met	-10.0842
▁Houston	-10.0843
▁classical	-10.0845
▁commissioned	-10.085
▁elect	-10.0851
▁fellow	-10.0852
▁Basketball	-10.0852
length	-10.0854
▁assistant	-10.0854
▁1944	-10.0854
pen	-10.0855
▁authority	-10.0856
▁offered	-10.0857
▁acting	-10.0861
▁administration	-10.0861
ii	-10.0862
▁Four	-10.0862
▁combined	-10.0862
▁Services	-10.0863
▁press	-10.0864
▁Prix	-10.0866
▁Clark	-10.0871
ates	-10.0874
cu	-10.0882
▁Albert	-10.0884
▁Sweden	-10.0889
nk	-10.0889
▁lu	-10.0891
tel	-10.0901
▁behavior	-10.0902
▁Not	-10.0902
▁gained	-10.0904
▁makes	-10.0906
▁daily	-10.0907
▁Vo	-10.0907
ew	-10.0912
▁target	-10.0915
▁Design	-10.0915
▁devices	-10.0919
▁Pi	-10.0921
▁Ball	-10.0923
▁Alberta	-10.0924
▁Atlanta	-10.0925
pin	-10.0931
▁Part	-10.0933
▁share	-10.0941
▁regard	-10.0941
▁hold	-10.0942
▁horror	-10.0943
▁1948	-10.0945
▁Dakota	-10.0952
▁Dun	-10.0953
▁Zone	-10.0962
▁poly	-10.0963
▁locations	-10.0971
▁deal	-10.0973
▁heart	-10.0977
oni	-10.0985
▁Of	-10.0986
▁Memorial	-10.0989
▁domain	-10.099
▁give	-10.0991
▁weekly	-10.0991
▁resources	-10.0994
▁upper	-10.0996
aka	-10.0999
▁image	-10.0999
▁manufacturer	-10.1
▁r	-10.1002
▁driver	-10.1012
CC	-10.1013
hr	-10.1013
dge	-10.1014
▁Fri	-10.1019
▁evidence	-10.1026
▁occur	-10.1033
▁Marine	-10.1033
▁tropical	-10.1035
▁develop	-10.1038
▁supporting	-10.1045
▁performing	-10.1045
sey	-10.1047
▁respectively	-10.1049
▁1999.	-10.1052
▁starred	-10.1055
din	-10.1062
▁spread	-10.1063
▁download	-10.1064
sur	-10.1068
▁Alan	-10.1071
▁square	-10.1072
thi	-10.1076
▁motor	-10.109
▁35	-10.1095
▁Bangladesh	-10.1095
▁annually	-10.1097
▁twice	-10.11
▁Song	-10.1101
▁hall	-10.1107
▁ball	-10.1107
▁Christmas	-10.1109
ks	-10.1112
law	-10.1113
▁politics	-10.1118
▁meeting	-10.1119
▁generation	-10.112
ets	-10.1124
gel	-10.1125
died	-10.1126
▁Austria	-10.1126
inae	-10.1126
designated	-10.1131
▁titled	-10.1132
▁grew	-10.1138
▁Space	-10.1139
▁vehicle	-10.1139
are	-10.114
▁helped	-10.1143
▁Athletic	-10.1149
bury	-10.1153
▁stand	-10.1159
▁drafted	-10.1161
▁rate	-10.1165
▁Ak	-10.1165
▁foundation	-10.1166
▁1955	-10.1167
▁reality	-10.1171
▁Nick	-10.1174
▁Metropolitan	-10.1184
yr	-10.1193
▁believed	-10.1194
▁Gen	-10.1198
yo	-10.1199
▁hours	-10.1209
▁Francis	-10.122
▁comes	-10.1232
▁novels	-10.1237
lli	-10.1238
▁conflict	-10.124
▁Patrick	-10.1241
▁Affairs	-10.1245
▁influence	-10.1246
nic	-10.1251
▁Yorkshire	-10.1253
▁Motor	-10.1255
ral	-10.1258
▁Anne	-10.1261
ded	-10.1264
▁businessman	-10.1265
▁Ken	-10.1266
▁moving	-10.1278
▁gun	-10.1278
▁DJ	-10.128
▁Nadu	-10.1281
▁Hotel	-10.1281
gate	-10.1295
▁Gray	-10.1296
▁judge	-10.1297
▁medium	-10.1297
ili	-10.1297
▁Ann	-10.1301
▁Bad	-10.1301
▁launch	-10.1306
▁registered	-10.1315
▁Cra	-10.1318
▁Honor	-10.132
▁governor	-10.1326
▁1998.	-10.133
▁build	-10.1331
▁Hay	-10.1332
ire	-10.1335
▁habitat	-10.1335
▁Corps	-10.1349
▁Hal	-10.1351
tta	-10.1352
▁Lady	-10.1352
▁developing	-10.1358
17	-10.1364
24	-10.1371
▁bio	-10.1372
▁Dave	-10.1372
▁Before	-10.1372
▁temple	-10.1375
▁contested	-10.1376
▁card	-10.1377
▁Medal	-10.1381
▁collaboration	-10.1382
▁Organization	-10.1382
▁distinct	-10.1383
▁1943	-10.139
▁origin	-10.1391
▁Ford	-10.1396
stro	-10.1397
▁Arkansas	-10.141
cal	-10.1412
▁Nova	-10.1415
▁Mexican	-10.142
rie	-10.1422
▁Village	-10.1425
uck	-10.1426
▁display	-10.1429
▁Detroit	-10.143
▁Ya	-10.1433
gy	-10.1436
▁flowers	-10.1436
▁heritage	-10.1439
▁Dam	-10.1439
▁spring	-10.1441
▁focused	-10.1443
▁Sand	-10.1443
▁Miller	-10.1445
▁bat	-10.1446
▁setting	-10.1449
▁Douglas	-10.1458
place	-10.1459
▁figure	-10.1471
▁Connecticut	-10.1478
▁sector	-10.1479
▁pen	-10.148
▁Walter	-10.1485
▁Productions	-10.1487
▁1954	-10.1489
▁goals	-10.1496
▁whether	-10.1497
▁Howard	-10.1501
▁Sciences	-10.1509
▁Para	-10.1511
▁leaf	-10.1512
▁ward	-10.1512
▁1947	-10.1514
work	-10.1514
lia	-10.1521
▁Yo	-10.1522
▁covering	-10.1523
esh	-10.1527
bri	-10.1529
▁etc	-10.1529
It	-10.1534
▁report	-10.1536
▁teacher	-10.1542
▁Miami	-10.1546
run	-10.1547
oli	-10.1553
▁learning	-10.1572
▁risk	-10.1575
▁sites	-10.1581
▁counties	-10.1585
▁going	-10.1591
cell	-10.16
mont	-10.1601
▁fashion	-10.1604
tte	-10.1604
▁punk	-10.1604
▁presidential	-10.1608
▁Berlin	-10.1608
DA	-10.1609
▁look	-10.1612
▁Austrian	-10.1615
gent	-10.1622
▁attempt	-10.1626
▁Brazilian	-10.1627
▁Youth	-10.1631
▁Mur	-10.1632
▁fields	-10.1638
▁classic	-10.1639
▁audio	-10.164
sis	-10.1652
▁Champion	-10.1653
▁Diego	-10.1654
▁fe	-10.1659
▁initial	-10.166
▁provincial	-10.1667
aria	-10.167
fin	-10.1674
▁Cla	-10.1678
yer	-10.1683
▁Jay	-10.1685
▁im	-10.1687
▁wing	-10.1688
wer	-10.1689
▁kind	-10.1693
▁contained	-10.1695
▁whole	-10.1699
▁po	-10.1701
▁calendar	-10.1702
cent	-10.1705
hn	-10.1708
▁animals	-10.1711
▁Allen	-10.1712
▁agreement	-10.1712
▁competing	-10.1721
▁print	-10.1728
▁ability	-10.1729
▁Matthew	-10.1731
▁leadership	-10.1734
▁Mat	-10.1734
21	-10.1736
▁conducted	-10.1739
▁Ly	-10.174
▁amateur	-10.1741
▁crew	-10.1744
▁Hills	-10.1744
▁inside	-10.1757
▁Bengal	-10.1759
▁bishop	-10.1761
▁mill	-10.1762
▁su	-10.1763
▁USS	-10.1769
part	-10.1776
▁Regional	-10.1788
▁sign	-10.1789
▁subsidiary	-10.1791
▁Railroad	-10.1791
▁Mas	-10.1791
▁plot	-10.1792
▁producing	-10.1797
▁flow	-10.1808
▁connected	-10.1809
bert	-10.181
▁1996.	-10.181
▁animal	-10.1811
ugh	-10.1811
▁bill	-10.1814
shire	-10.1816
AM	-10.1816
▁Tro	-10.1824
▁ob	-10.1828
bin	-10.1831
▁specifically	-10.1833
▁credited	-10.1833
ants	-10.1842
AR	-10.1843
▁estimated	-10.1847
ture	-10.1849
play	-10.1849
▁1953	-10.1859
22	-10.1859
▁traffic	-10.186
▁butterfly	-10.186
▁DC	-10.186
mis	-10.1862
▁Phil	-10.1866
▁territory	-10.187
▁Seattle	-10.1871
▁Wild	-10.1872
AP	-10.189
▁leaving	-10.1891
▁Hol	-10.1893
▁incorporated	-10.1894
▁mix	-10.19
▁rule	-10.1901
▁Fre	-10.1907
▁votes	-10.1909
▁exist	-10.1909
▁join	-10.1913
▁centers	-10.1917
▁Em	-10.1918
▁reflect	-10.1918
▁always	-10.1921
▁Cur	-10.1922
ros	-10.1923
▁claim	-10.1926
fish	-10.1929
▁models	-10.1931
▁Singh	-10.1933
▁shape	-10.1943
▁32	-10.1944
▁Glen	-10.1948
86	-10.1951
▁MP	-10.1953
▁assigned	-10.1961
iidae	-10.1961
bridge	-10.1969
▁condition	-10.1971
▁Kerala	-10.1971
▁safety	-10.1972
til	-10.1975
▁Ye	-10.1986
▁clear	-10.1989
▁Limited	-10.1991
pos	-10.1991
ima	-10.1993
▁adventure	-10.1994
▁efforts	-10.2
▁brown	-10.2003
▁institution	-10.2005
▁potential	-10.2009
▁claimed	-10.201
▁regiment	-10.2012
▁80	-10.2013
▁painter	-10.2014
sville	-10.2015
▁Sy	-10.2016
▁wind	-10.2016
▁attention	-10.2022
▁Burn	-10.2027
view	-10.2028
▁0	-10.203
▁Hamilton	-10.2032
SP	-10.2033
not	-10.2033
tern	-10.2033
▁Command	-10.2039
uch	-10.2039
pho	-10.204
▁Swiss	-10.2042
▁1942	-10.2051
▁twelve	-10.2052
nal	-10.2053
▁1946	-10.2058
nu	-10.2058
▁Ste	-10.2059
▁Tan	-10.2067
▁Belgian	-10.2073
ches	-10.2077
▁selection	-10.209
TC	-10.2098
▁Belgium	-10.2103
▁know	-10.2104
▁Silver	-10.2115
chin	-10.2116
▁functions	-10.2117
izing	-10.2119
fo	-10.2121
SC	-10.2121
▁Local	-10.2125
▁steam	-10.2126
▁1997.	-10.2129
▁1951	-10.2133
dal	-10.2136
▁Ven	-10.2136
▁marked	-10.2136
▁AM	-10.2136
▁foot	-10.2144
▁combat	-10.2145
bus	-10.2145
▁structures	-10.2145
kan	-10.2154
▁pilot	-10.2155
▁edge	-10.2162
▁fr	-10.2163
▁grade	-10.2164
▁musicians	-10.2166
▁stream	-10.2172
▁identified	-10.2175
▁Dance	-10.2176
arian	-10.2177
▁basic	-10.2178
▁Pop	-10.2185
vel	-10.2185
▁billion	-10.219
gram	-10.2192
▁na	-10.2196
▁Global	-10.2196
▁da	-10.2197
TA	-10.2198
▁words	-10.2206
▁room	-10.2206
▁Vancouver	-10.2206
▁criminal	-10.2206
AS	-10.2209
▁airport	-10.2209
▁1995.	-10.2209
▁cars	-10.2213
▁follow	-10.2213
▁flag	-10.2216
▁sources	-10.2218
▁rapper	-10.2218
▁Arm	-10.2222
ware	-10.2225
▁manufactured	-10.2227
▁boy	-10.2228
▁bands	-10.2233
▁2002,	-10.2234
▁Adam	-10.2242
▁sell	-10.2244
▁dead	-10.2247
▁methods	-10.2247
▁transferred	-10.2249
▁Norway	-10.225
▁standards	-10.2251
▁gu	-10.2253
BA	-10.2254
▁Pri	-10.2256
▁adapted	-10.2258
▁Ltd	-10.2259
▁likely	-10.226
▁arch	-10.2263
▁keep	-10.2264
▁Diocese	-10.2269
▁Magazine	-10.2269
▁junior	-10.2269
▁month	-10.2274
tru	-10.2279
▁1928	-10.2281
▁yet	-10.2281
▁Fred	-10.2283
▁electric	-10.23
▁90	-10.2302
▁speed	-10.2304
▁resulting	-10.2306
▁medieval	-10.2311
matic	-10.2312
▁frame	-10.2318
28	-10.2318
▁ring	-10.2319
bil	-10.2319
▁Cam	-10.2321
▁Finnish	-10.2321
▁Baron	-10.2322
▁f	-10.2324
26	-10.2326
▁stores	-10.2328
▁Ty	-10.233
▁husband	-10.2332
Re	-10.2335
▁flat	-10.2339
▁Albums	-10.2341
▁spot	-10.2345
▁sa	-10.2346
▁poor	-10.2347
FM	-10.2353
▁Square	-10.2353
pet	-10.2355
▁already	-10.2363
▁wall	-10.2375
▁wave	-10.2376
▁brick	-10.2376
eastern	-10.2382
▁fought	-10.2384
▁par	-10.2385
▁ba	-10.2387
pping	-10.2388
▁prize	-10.2395
aya	-10.2399
▁Later	-10.2402
▁Hi	-10.2403
▁Congo	-10.2404
▁Au	-10.2404
▁Cap	-10.2405
▁entertainment	-10.2406
▁gain	-10.2407
▁del	-10.2407
burn	-10.2408
▁1949	-10.2414
▁planned	-10.2416
▁object	-10.2419
▁corner	-10.2421
▁trees	-10.2424
key	-10.2425
▁Son	-10.2426
▁pi	-10.2431
▁1994.	-10.2431
08	-10.2434
af	-10.2434
bre	-10.2436
▁Spring	-10.2436
▁marriage	-10.2437
▁probably	-10.2437
MS	-10.2437
▁Ana	-10.2438
uc	-10.2438
mor	-10.2439
▁except	-10.244
▁Alex	-10.2442
chan	-10.2448
▁Sabha	-10.245
▁sex	-10.2452
onic	-10.2452
qu	-10.2455
▁vehicles	-10.2455
▁Municipality	-10.247
▁Kevin	-10.247
▁Maine	-10.2471
style	-10.2474
01	-10.2474
▁Cl	-10.2475
ans	-10.2476
ira	-10.2478
▁pass	-10.2479
▁Hampshire	-10.2479
▁ethnic	-10.2479
▁Ghana	-10.248
▁enough	-10.248
▁religion	-10.249
▁races	-10.2492
▁converted	-10.2504
▁entry	-10.2512
▁scale	-10.2516
dis	-10.2519
▁Dream	-10.2522
▁Carl	-10.2525
▁removed	-10.2529
▁got	-10.253
▁labor	-10.2535
ency	-10.2537
▁publishing	-10.254
▁70	-10.255
▁reach	-10.2554
▁draft	-10.2558
tation	-10.256
▁promotion	-10.2565
▁review	-10.2567
▁Review	-10.2568
▁Wil	-10.257
▁holding	-10.2571
▁Muslim	-10.2576
▁Farm	-10.258
▁cat	-10.2582
▁lists	-10.2585
▁400	-10.2587
ama	-10.2588
bro	-10.2589
▁downtown	-10.259
▁affect	-10.2594
▁Pittsburgh	-10.2597
▁receive	-10.2597
▁hair	-10.2601
▁rise	-10.2604
▁narrow	-10.2608
▁perform	-10.2613
▁mar	-10.2615
lip	-10.2618
▁taught	-10.2619
▁fa	-10.262
western	-10.2624
PA	-10.2625
del	-10.2629
▁sequence	-10.263
▁Real	-10.2634
ER	-10.2643
aries	-10.2644
▁notably	-10.2647
▁Test	-10.2655
▁1941	-10.2659
▁Jordan	-10.2662
▁literary	-10.2663
oph	-10.2663
27	-10.2664
▁existing	-10.2665
▁Guard	-10.2672
atus	-10.2673
ree	-10.2673
▁charge	-10.2679
our	-10.2681
▁Athletics	-10.2691
▁girl	-10.2692
long	-10.2692
▁skin	-10.2693
▁creating	-10.2695
see	-10.27
west	-10.27
ore	-10.2705
▁Senator	-10.2708
▁scheduled	-10.2715
▁memory	-10.2716
▁Rob	-10.2719
▁Kim	-10.2721
▁photo	-10.2724
▁Sur	-10.2726
▁tradition	-10.2728
RC	-10.2732
▁minutes	-10.2732
ography	-10.2734
▁Cho	-10.2735
▁retirement	-10.2739
▁too	-10.2739
▁pressure	-10.2739
FA	-10.2746
lie	-10.2748
var	-10.2752
▁painting	-10.2752
▁fly	-10.2755
vest	-10.2755
rk	-10.276
▁frog	-10.2761
▁Seven	-10.2763
▁communication	-10.2763
ites	-10.2766
▁concern	-10.2768
ky	-10.2769
▁presence	-10.2771
▁wine	-10.2771
reg	-10.278
wick	-10.2782
▁army	-10.2785
35	-10.279
▁existence	-10.2794
▁Christopher	-10.2804
▁consecutive	-10.2804
▁therefore	-10.2804
▁knowledge	-10.2804
down	-10.2807
▁Den	-10.2807
book	-10.2809
▁Oak	-10.2812
die	-10.2814
▁Nevada	-10.2815
▁investment	-10.2815
▁combination	-10.2817
▁passenger	-10.2819
▁Mah	-10.2822
▁page	-10.2824
Co	-10.2829
ctor	-10.2841
▁Ci	-10.2842
▁contributions	-10.2844
▁Adelaide	-10.2848
▁roof	-10.2849
▁Broadcasting	-10.2856
▁transfer	-10.2857
ction	-10.2864
RI	-10.2867
sel	-10.2869
▁chosen	-10.2875
▁Gri	-10.2878
▁iron	-10.2878
▁appearing	-10.2881
▁Tur	-10.2882
▁script	-10.2889
▁pioneer	-10.2893
▁1929	-10.2894
▁Qu	-10.2897
▁Ze	-10.2899
▁stated	-10.29
▁places	-10.29
▁Kal	-10.2901
▁database	-10.2904
lim	-10.2909
▁shared	-10.2914
awa	-10.2919
▁drive	-10.2919
▁Way	-10.2922
ati	-10.2925
gh	-10.2925
▁competitions	-10.2926
▁circuit	-10.2926
▁Th	-10.2927
▁hits	-10.2928
▁bring	-10.2929
▁meet	-10.2931
▁Doctor	-10.2938
▁Pas	-10.294
▁fully	-10.2942
BC	-10.2947
cast	-10.2949
lla	-10.295
▁file	-10.295
▁Brothers	-10.2956
Le	-10.2958
▁Cleveland	-10.2959
▁finish	-10.2966
ved	-10.2967
▁Op	-10.297
▁Regiment	-10.297
▁Wrestling	-10.297
▁soil	-10.2973
▁app	-10.298
▁certified	-10.2981
▁signal	-10.2981
▁railroad	-10.2982
vers	-10.2982
▁athlete	-10.2985
▁nuclear	-10.2988
89	-10.299
▁Fellow	-10.2992
reviewed	-10.2992
▁Crambidae	-10.2993
▁assembly	-10.2996
vent	-10.3005
eh	-10.3006
▁NBC	-10.3007
▁Chairman	-10.3008
500	-10.3009
gam	-10.3014
ace	-10.3019
▁Formula	-10.3019
▁PC	-10.3023
▁Lar	-10.3025
▁relative	-10.3025
▁1936	-10.3026
ato	-10.3028
▁Lincoln	-10.3037
▁Reserve	-10.3039
▁specialized	-10.3041
▁2001,	-10.3042
▁internationally	-10.3043
▁extensive	-10.3047
▁weight	-10.3047
▁venue	-10.3048
elli	-10.3048
▁Lower	-10.3061
▁promoted	-10.3061
▁classified	-10.3062
▁classes	-10.3063
▁Mont	-10.3065
▁Bull	-10.3068
▁centuries	-10.3071
▁satellite	-10.3071
▁Gordon	-10.3072
▁feed	-10.3074
▁Bri	-10.3074
rich	-10.3076
▁Sport	-10.3076
▁figures	-10.3081
▁Utah	-10.3083
▁Express	-10.3084
▁Moore	-10.3089
▁Argentina	-10.3094
▁Dublin	-10.3094
▁positions	-10.3101
▁Vietnam	-10.3105
▁serial	-10.3106
▁trial	-10.311
▁internal	-10.311
ika	-10.311
▁protection	-10.3112
▁Moon	-10.3115
▁greater	-10.3116
▁produces	-10.3118
▁establishment	-10.3119
ging	-10.312
ort	-10.312
09	-10.312
▁favor	-10.3123
▁genre	-10.3129
▁Delhi	-10.3129
▁1919	-10.313
ava	-10.3131
MP	-10.3133
ute	-10.3134
▁Win	-10.3135
▁Mayor	-10.3138
worth	-10.3139
▁Gre	-10.3144
▁Wing	-10.3146
▁Sim	-10.3148
▁Birmingham	-10.3151
▁Austin	-10.3151
▁workers	-10.3152
▁steel	-10.3153
▁Trade	-10.3155
och	-10.3157
mark	-10.316
▁Mil	-10.3161
▁Medicine	-10.3163
▁Cer	-10.3164
▁Comp	-10.3169
▁Duke	-10.3173
▁Information	-10.3174
▁Your	-10.3176
▁Warner	-10.3181
east	-10.3184
▁Fo	-10.3184
▁heat	-10.3187
▁Jeff	-10.3196
▁Children	-10.3197
ban	-10.3202
NA	-10.3204
hen	-10.3205
pre	-10.3205
▁Songs	-10.3207
mu	-10.3212
▁captain	-10.3214
nan	-10.3217
▁Malayalam	-10.3219
▁CBS	-10.3223
▁subsequent	-10.3229
▁Another	-10.3232
ali	-10.3232
▁Thailand	-10.3243
▁northeast	-10.3244
▁Portland	-10.325
▁dry	-10.3264
▁Rio	-10.3265
▁Authority	-10.3266
▁accident	-10.3277
▁virtual	-10.3277
▁friend	-10.3286
sburg	-10.3287
▁Alliance	-10.3288
non	-10.329
▁Baltimore	-10.33
▁compared	-10.33
▁Anderson	-10.33
rit	-10.3302
▁Greater	-10.3305
▁Anna	-10.331
▁Short	-10.3312
▁dam	-10.3319
▁Lang	-10.3322
omy	-10.3322
▁Mountains	-10.3327
▁big	-10.333
▁Tam	-10.333
▁Universal	-10.3335
▁context	-10.3335
▁demand	-10.3335
▁Cook	-10.3337
▁Communications	-10.3338
most	-10.3338
▁candidates	-10.3345
▁Glasgow	-10.3346
▁Arena	-10.3346
▁camera	-10.3347
▁fo	-10.3348
▁Gor	-10.3348
▁Yu	-10.335
▁contrast	-10.3351
▁describes	-10.3357
▁continue	-10.3358
lot	-10.3359
▁mu	-10.3359
▁hosts	-10.3365
▁Mus	-10.3369
▁Lawrence	-10.3369
▁sponsored	-10.3371
▁Arab	-10.3373
▁cable	-10.3375
▁Peru	-10.3376
▁Due	-10.3377
aj	-10.3381
▁Bus	-10.3382
▁idea	-10.3384
▁Rick	-10.3386
▁fast	-10.3392
▁reaching	-10.3393
▁2000,	-10.3397
vy	-10.3402
▁Temple	-10.3402
▁entrepreneur	-10.3403
▁Run	-10.3403
▁forced	-10.3404
▁Denmark	-10.3405
▁Grammy	-10.3405
▁Unit	-10.3405
▁1993.	-10.3406
list	-10.3409
▁supply	-10.3416
▁Montreal	-10.3416
▁phase	-10.3417
▁recordings	-10.3418
▁southwestern	-10.3419
lis	-10.3419
gre	-10.3433
rate	-10.3434
▁courses	-10.3435
▁pick	-10.344
▁publications	-10.3443
iff	-10.3444
▁Ce	-10.3446
▁1992.	-10.3446
▁recognition	-10.3451
chy	-10.3454
▁theme	-10.3458
▁Stock	-10.3458
cip	-10.3459
▁couple	-10.3463
▁Dallas	-10.3463
▁1939	-10.3467
▁remain	-10.3473
▁Kat	-10.3474
▁Harris	-10.3474
ties	-10.3475
zy	-10.3476
▁Hindu	-10.3483
▁specialize	-10.3484
▁reform	-10.3488
▁bear	-10.3489
▁adaptation	-10.3489
onia	-10.349
▁45	-10.3495
▁Ryan	-10.3496
▁Las	-10.3496
▁Kin	-10.3498
▁Richmond	-10.3498
dle	-10.3499
▁Polish	-10.35
ack	-10.3504
-18	-10.3511
▁loan	-10.3512
▁forests	-10.3512
▁zone	-10.3513
▁piece	-10.3514
▁cap	-10.3515
▁Apple	-10.3516
▁machine	-10.3517
▁Upper	-10.3518
▁existed	-10.352
▁aspects	-10.352
MC	-10.352
▁restaurant	-10.3521
▁Quebec	-10.3522
▁Modern	-10.3522
Mo	-10.3523
▁wild	-10.3533
▁Saturday	-10.3534
▁southeast	-10.3536
▁plans	-10.3538
yard	-10.3539
winning	-10.3541
▁PlayStation	-10.3545
▁enzyme	-10.3545
▁secret	-10.3556
▁Several	-10.3557
▁Bruce	-10.3561
▁pa	-10.3561
▁Dark	-10.3562
cr	-10.3564
▁cha	-10.3564
29	-10.3565
▁percent	-10.3569
▁castle	-10.3569
▁Delaware	-10.3569
agh	-10.357
▁Back	-10.357
ern	-10.3572
▁Iron	-10.3577
▁Key	-10.3578
with	-10.3588
▁core	-10.3595
▁younger	-10.3596
▁reaction	-10.3597
▁Hollywood	-10.3606
vas	-10.3607
▁coming	-10.3608
▁Tanzania	-10.3617
▁contain	-10.362
▁highway	-10.3621
poli	-10.3621
▁Brook	-10.3626
▁Micro	-10.3628
▁Deputy	-10.3629
▁trains	-10.3632
▁Iran	-10.3636
dan	-10.364
ttle	-10.3649
ym	-10.3649
▁specializ	-10.3652
▁Heritage	-10.3653
▁Jacob	-10.3653
aga	-10.3662
▁Max	-10.3664
▁avoid	-10.3665
▁entitled	-10.3665
▁outdoor	-10.3666
▁1917	-10.3667
▁selling	-10.3667
nie	-10.3672
eth	-10.3677
▁processes	-10.368
point	-10.3681
▁employees	-10.3691
▁operate	-10.3692
▁technique	-10.3692
▁eighth	-10.37
▁problem	-10.3705
ori	-10.3715
▁Kam	-10.3721
ave	-10.3721
▁Books	-10.3728
▁contest	-10.3735
▁ta	-10.3735
▁symbol	-10.3737
▁custom	-10.374
▁tribe	-10.3743
▁edited	-10.3743
IP	-10.3744
▁entirely	-10.3746
band	-10.375
▁volume	-10.3751
▁Market	-10.3751
pon	-10.3756
▁municipal	-10.3757
▁cyclist	-10.3761
▁isolated	-10.3761
06	-10.3764
gle	-10.3765
▁resulted	-10.3766
hood	-10.3767
▁airline	-10.3768
▁Pur	-10.3769
99	-10.3769
▁Though	-10.3769
▁extra	-10.377
▁36	-10.3772
▁Harbor	-10.3774
▁1918	-10.3776
rap	-10.3782
ux	-10.379
▁Wayne	-10.379
▁vice	-10.3794
ila	-10.3795
▁Sierra	-10.3797
▁cycle	-10.3798
▁Uganda	-10.3799
▁bra	-10.38
▁Greg	-10.3804
▁Report	-10.3806
▁Holy	-10.3811
▁layer	-10.3812
▁Tele	-10.3814
▁improve	-10.382
▁Ran	-10.3821
▁Convention	-10.3822
▁Ian	-10.3822
▁1924	-10.3824
07	-10.3826
▁Grant	-10.383
▁Tournament	-10.3834
▁background	-10.3835
anda	-10.3837
▁membership	-10.384
▁Wal	-10.3843
▁pan	-10.3846
▁surname	-10.3846
▁coal	-10.3849
anga	-10.3852
▁dates	-10.3853
▁Ice	-10.3854
St	-10.3854
▁Professional	-10.3858
▁Alaska	-10.3858
▁Who	-10.3858
▁glass	-10.386
wal	-10.3862
▁officers	-10.3864
▁Java	-10.3864
ments	-10.3877
▁comprises	-10.3877
▁offer	-10.3878
zer	-10.3878
▁Pass	-10.3879
▁genetic	-10.3882
94	-10.389
term	-10.3891
▁experimental	-10.3893
▁orchid	-10.3895
▁Turkey	-10.3896
oy	-10.3896
▁hundred	-10.3904
▁residence	-10.3907
▁regarded	-10.3908
La	-10.3909
87	-10.3914
▁citizens	-10.3914
amp	-10.392
phon	-10.3922
▁Currently	-10.3923
▁organ	-10.3925
▁Rad	-10.3927
qua	-10.3927
▁Racing	-10.3933
▁tools	-10.3936
▁priest	-10.3944
▁Captain	-10.3945
relatively	-10.3947
▁Lane	-10.395
▁Bon	-10.3956
▁medicine	-10.3956
▁fight	-10.3957
▁boat	-10.3964
▁characterized	-10.3964
rat	-10.3965
▁newly	-10.3968
▁1991.	-10.3971
▁Whit	-10.3973
▁Nigerian	-10.3973
lor	-10.3974
▁Indonesian	-10.3975
▁cinema	-10.3981
▁fan	-10.3988
▁Philippine	-10.3992
▁defensive	-10.3993
lt	-10.3995
▁Ren	-10.3997
▁1999,	-10.3999
vid	-10.4
▁relations	-10.4001
▁Trophy	-10.4006
▁institute	-10.4018
▁laws	-10.4023
▁finally	-10.4024
▁credit	-10.4025
▁poll	-10.4027
▁Franklin	-10.4027
▁Egypt	-10.4027
cap	-10.4028
▁Lan	-10.4029
▁Karnataka	-10.4031
▁Dy	-10.4036
▁enter	-10.4039
bon	-10.404
▁Mission	-10.4043
▁permanent	-10.4043
▁Greece	-10.4043
▁Sol	-10.4048
▁phone	-10.405
▁fair	-10.4068
SS	-10.4069
eng	-10.407
▁Bor	-10.4075
FC	-10.408
▁corporate	-10.4081
▁shell	-10.4082
▁Brooklyn	-10.4093
▁Bas	-10.4094
▁planning	-10.4094
▁effort	-10.4094
▁Album	-10.4094
▁Gary	-10.4095
▁Maria	-10.4099
▁Administration	-10.4106
▁Revival	-10.4106
▁heard	-10.4107
▁spoken	-10.411
▁Forces	-10.411
nia	-10.4115
gal	-10.4123
released	-10.4124
phy	-10.4127
▁marketing	-10.4128
▁businesses	-10.4137
▁ranking	-10.4137
level	-10.4141
▁comedian	-10.4144
▁Finland	-10.4145
PS	-10.4147
▁Hard	-10.4149
▁draw	-10.4151
▁coastal	-10.4153
▁indie	-10.4154
▁Geometridae	-10.4156
ean	-10.4162
▁champions	-10.4163
Ro	-10.4163
▁Afghanistan	-10.4168
▁manufacturing	-10.4168
▁resolution	-10.4168
▁purposes	-10.4179
▁Scotia	-10.4182
▁Hart	-10.4183
▁1922	-10.4183
▁filmed	-10.419
▁maintained	-10.419
▁earliest	-10.4194
▁allowing	-10.4196
▁1988)	-10.42
▁determine	-10.4201
▁Auto	-10.4204
▁Broadway	-10.4206
▁Donald	-10.4207
▁Dead	-10.4211
▁soap	-10.4213
▁Harvard	-10.4219
▁Anti	-10.4219
▁Officer	-10.422
▁planet	-10.4222
▁reduce	-10.4226
▁normal	-10.4226
▁Marvel	-10.4234
▁1990)	-10.4237
mel	-10.4237
▁ne	-10.4238
ock	-10.424
▁thriller	-10.4244
▁partnership	-10.4246
▁northwest	-10.4247
▁Among	-10.4248
cies	-10.4249
▁Classic	-10.4249
cid	-10.4252
▁ceremony	-10.4257
ough	-10.4258
▁1927	-10.4259
▁motion	-10.4261
▁path	-10.4262
▁Sel	-10.4264
CE	-10.4268
▁finishing	-10.4269
▁participate	-10.4277
horn	-10.4279
OS	-10.428
rock	-10.4282
▁possibly	-10.4282
▁interior	-10.4282
nny	-10.4283
ject	-10.4291
▁ro	-10.4293
▁1991)	-10.4294
▁biggest	-10.4295
▁Kings	-10.4296
▁tank	-10.4297
▁33	-10.4298
▁controlled	-10.4299
▁Morgan	-10.4299
tia	-10.4303
▁Mun	-10.4306
▁DNA	-10.4314
language	-10.4314
▁receptor	-10.4315
▁economy	-10.4321
▁successor	-10.4326
▁Lin	-10.4333
▁reign	-10.4334
▁Wolf	-10.4334
▁operator	-10.4336
een	-10.434
cur	-10.4343
▁Anglican	-10.4346
▁Noctuidae	-10.4346
▁giving	-10.4346
▁athletes	-10.435
▁Angel	-10.435
▁Hindi	-10.435
fu	-10.4351
shaped	-10.4355
▁confused	-10.4359
▁valley	-10.4359
▁Buck	-10.4361
▁ra	-10.4361
ged	-10.4362
lay	-10.4362
pat	-10.4363
mes	-10.4366
▁influenced	-10.4367
▁tool	-10.4368
▁1938	-10.4369
▁reduced	-10.4377
iti	-10.4378
▁plate	-10.4379
-4	-10.4385
▁approved	-10.4386
▁southwest	-10.4387
▁1925	-10.4388
▁Iraq	-10.4397
▁declared	-10.4398
▁1935	-10.4398
▁flies	-10.4407
▁Tech	-10.4413
yne	-10.4413
▁objects	-10.4417
▁Naval	-10.442
▁towns	-10.4423
▁Grade	-10.4424
ado	-10.4428
▁retail	-10.4431
but	-10.4433
▁Gal	-10.4433
▁reasons	-10.4436
▁charter	-10.4438
▁Unlike	-10.4438
▁Morris	-10.4444
▁Energy	-10.445
▁Capital	-10.445
▁Neo	-10.445
iaceae	-10.4451
ians	-10.4461
▁advanced	-10.4464
bat	-10.4465
type	-10.4465
45	-10.4466
▁hill	-10.4468
olo	-10.4473
▁expansion	-10.4475
▁Agency	-10.4476
▁Girl	-10.4482
▁eyes	-10.4483
ost	-10.4484
▁Caribbean	-10.4488
eller	-10.449
▁visit	-10.4492
▁read	-10.4498
▁golf	-10.4498
▁fl	-10.4498
▁heavily	-10.4502
▁Schools	-10.4503
▁leaders	-10.4507
ons	-10.4512
▁Because	-10.4515
▁shrub	-10.4515
arch	-10.4516
▁fans	-10.4519
wo	-10.4522
75	-10.4522
▁Campbell	-10.4528
ming	-10.4533
SL	-10.4534
which	-10.4535
▁panel	-10.4535
▁mark	-10.4538
pal	-10.4543
▁told	-10.4544
▁greatest	-10.4544
▁damage	-10.4551
▁sat	-10.4551
▁34	-10.4552
▁joining	-10.4557
▁link	-10.4557
▁Ward	-10.4558
▁arm	-10.4559
▁reason	-10.4562
▁affiliate	-10.4562
▁Constitution	-10.4565
spec	-10.4577
▁sal	-10.4581
▁Bro	-10.4581
master	-10.4581
person	-10.4584
▁1900	-10.4585
▁describe	-10.4589
▁techniques	-10.4589
▁prop	-10.4592
▁competitive	-10.4593
▁birth	-10.4594
▁Base	-10.4594
▁Murray	-10.4594
▁Food	-10.4596
▁borough	-10.4597
bul	-10.4599
▁mono	-10.4601
▁meter	-10.4603
app	-10.4603
▁Rich	-10.4603
▁Baptist	-10.4606
33	-10.461
92	-10.4612
▁Sin	-10.4614
▁Gil	-10.4617
▁Pal	-10.4618
▁Erebidae	-10.4619
dom	-10.462
▁Hand	-10.4625
▁chair	-10.4626
▁breed	-10.4627
▁ver	-10.463
ulation	-10.4631
▁Brisbane	-10.4633
▁bed	-10.4633
ddle	-10.4633
▁Hor	-10.4635
▁mining	-10.4636
▁bassist	-10.4638
ela	-10.464
▁agricultural	-10.4646
ST	-10.4649
dri	-10.4651
ben	-10.4652
▁want	-10.4656
▁rose	-10.4657
▁1937	-10.4657
▁parents	-10.4666
▁tall	-10.4668
▁Tower	-10.4675
▁1916	-10.4675
▁price	-10.4676
▁Edinburgh	-10.4686
▁nomination	-10.4689
▁count	-10.4692
ith	-10.4697
▁Wind	-10.4698
▁walk	-10.4699
SI	-10.4699
▁swimmer	-10.4699
ert	-10.4702
tric	-10.4705
▁releases	-10.4706
▁Web	-10.4715
▁picture	-10.4716
▁Des	-10.472
hall	-10.4723
▁Shi	-10.4723
▁factor	-10.4723
▁Han	-10.4727
▁Ski	-10.4729
▁quickly	-10.473
▁grass	-10.4732
▁videos	-10.4733
▁don	-10.4733
▁fungi	-10.4738
▁offering	-10.4739
▁Orleans	-10.4739
▁Sony	-10.4745
▁guard	-10.4746
▁Jason	-10.4748
You	-10.475
elle	-10.475
▁Parish	-10.4757
hor	-10.4758
▁personality	-10.4759
una	-10.4761
sum	-10.4764
▁Foreign	-10.4766
right	-10.4772
bor	-10.4775
lop	-10.4776
▁philosophy	-10.4779
▁contact	-10.4779
bur	-10.4779
fri	-10.4781
▁Place	-10.4784
▁branches	-10.4787
▁universities	-10.4792
▁genera	-10.4795
founder	-10.4797
▁Est	-10.4801
get	-10.4802
core	-10.4802
▁parent	-10.4802
mate	-10.4804
▁contributing	-10.4806
▁beyond	-10.4806
▁Isle	-10.4808
05	-10.4809
▁decades	-10.4811
▁laid	-10.4813
95	-10.4814
▁flows	-10.4816
ui	-10.4817
▁Early	-10.4817
▁Judge	-10.482
▁am	-10.4821
aff	-10.4827
▁Nan	-10.4835
ess	-10.4836
▁authorities	-10.4838
▁difficult	-10.4842
▁involving	-10.4846
▁Samuel	-10.4846
▁quarter	-10.4846
▁churches	-10.4848
▁fine	-10.4851
▁arms	-10.4852
▁Mir	-10.4855
▁longest	-10.4858
borough	-10.4859
▁Military	-10.486
▁Nebraska	-10.486
inus	-10.486
▁interface	-10.4861
▁sense	-10.4862
face	-10.4862
▁1926	-10.4862
▁otherwise	-10.4864
rac	-10.4865
▁Ter	-10.4869
▁Poland	-10.487
▁decade	-10.4871
▁trained	-10.4872
▁Six	-10.4872
▁romantic	-10.4873
▁Peninsula	-10.4873
▁Computer	-10.4873
▁agencies	-10.4887
▁bodies	-10.4887
▁crater	-10.4887
▁Jane	-10.4888
▁numbers	-10.489
▁Roy	-10.489
lea	-10.4892
▁survey	-10.49
▁Steven	-10.4901
▁Jazz	-10.4902
boat	-10.491
▁Warren	-10.491
▁Les	-10.4912
▁sun	-10.4918
▁ju	-10.4922
titled	-10.4922
▁Rat	-10.4925
▁Nelson	-10.4927
▁eye	-10.4928
De	-10.4929
▁Common	-10.4931
lap	-10.4933
▁unusual	-10.4933
▁shore	-10.4937
▁needs	-10.4941
▁reserve	-10.495
▁reports	-10.4951
▁vessel	-10.4951
-12	-10.4952
▁beach	-10.4954
▁revenue	-10.4955
▁hamlet	-10.4955
▁Pope	-10.4959
aki	-10.4959
▁popularity	-10.4959
▁Standard	-10.4969
▁Springs	-10.4969
▁Dal	-10.4971
▁Sil	-10.498
▁McG	-10.4981
▁corporation	-10.4982
▁Gro	-10.4983
▁Site	-10.4983
▁Amb	-10.4999
pop	-10.5001
▁regularly	-10.5004
▁employed	-10.5004
▁instruments	-10.5008
▁pianist	-10.5009
▁nations	-10.501
bia	-10.5013
▁Islamic	-10.5014
state	-10.502
▁squad	-10.5022
200	-10.5028
▁sides	-10.5036
▁Russell	-10.5037
▁instrument	-10.5038
DP	-10.5041
ched	-10.5042
▁contributed	-10.5047
▁championships	-10.5047
▁Adams	-10.5057
vol	-10.5058
hl	-10.506
▁grows	-10.506
▁margin	-10.506
▁actually	-10.5061
ain	-10.5063
▁Kelly	-10.5064
▁1989)	-10.5064
▁architectural	-10.5065
▁leave	-10.5065
under	-10.5065
hel	-10.5073
▁claims	-10.5075
91	-10.5077
▁incumbent	-10.5078
▁slightly	-10.5081
▁Dick	-10.5083
uli	-10.5085
▁Locat	-10.5086
hol	-10.5089
ele	-10.5089
▁brain	-10.509
▁Jesus	-10.5092
▁1921	-10.5095
▁islands	-10.5101
▁Buffalo	-10.5106
▁qualified	-10.5106
▁Stewart	-10.5106
▁Territory	-10.5106
▁injury	-10.5106
▁1989.	-10.5108
▁Pin	-10.5113
including	-10.5118
▁job	-10.512
▁height	-10.5122
put	-10.5123
▁Orange	-10.5123
▁photographer	-10.5134
04	-10.5135
NFL	-10.5136
▁Maha	-10.5136
nis	-10.5141
▁Stan	-10.5143
▁See	-10.5144
▁auto	-10.5144
▁tributary	-10.5147
aba	-10.5148
▁document	-10.5148
▁rank	-10.5149
ivity	-10.5153
Lo	-10.5153
eu	-10.5155
▁recipient	-10.5161
▁nominee	-10.5161
65	-10.5162
rn	-10.5163
rill	-10.5166
▁winners	-10.5167
mond	-10.5168
▁immediately	-10.5168
bol	-10.5173
▁Shar	-10.5173
▁effective	-10.5174
85	-10.5175
▁networks	-10.5175
▁morning	-10.5176
▁hands	-10.5176
▁interests	-10.518
▁component	-10.5192
▁Mall	-10.5194
37	-10.5196
gun	-10.5197
▁friends	-10.5198
▁expected	-10.5198
tre	-10.5199
ult	-10.52
table	-10.5202
mas	-10.5206
▁Formation	-10.5206
▁Barn	-10.5211
ister	-10.5212
83	-10.5212
▁Virgin	-10.5214
▁1993)	-10.5216
▁Maharashtra	-10.5217
▁jurisdiction	-10.5217
98	-10.5218
cut	-10.5223
ille	-10.5223
pir	-10.5231
▁receiving	-10.5231
▁Only	-10.5232
US	-10.5234
▁Graham	-10.5234
path	-10.5234
▁involves	-10.5235
num	-10.5241
▁destroyed	-10.5243
▁1981)	-10.5244
▁1986.	-10.5244
ters	-10.5248
▁educated	-10.525
▁LP	-10.5251
▁causes	-10.5255
▁Chamber	-10.5259
▁speech	-10.5259
▁incident	-10.5259
▁processing	-10.5259
▁Barry	-10.5259
Ba	-10.5261
▁markets	-10.5263
▁typical	-10.5267
▁Now	-10.527
▁advocate	-10.5273
▁bought	-10.5274
▁string	-10.5278
▁Reg	-10.5283
mmer	-10.5285
▁Luc	-10.5286
▁widespread	-10.5287
An	-10.5287
▁1910	-10.5288
▁Jam	-10.5289
CI	-10.5291
▁Has	-10.5293
hin	-10.5295
▁cannot	-10.5296
▁flu	-10.5298
▁Norman	-10.5298
German	-10.5301
▁royal	-10.5302
▁mouth	-10.5305
▁question	-10.5307
▁standing	-10.5307
las	-10.5308
▁fill	-10.5309
▁poetry	-10.5309
▁Lions	-10.531
ico	-10.5311
av	-10.5311
IN	-10.5315
▁patent	-10.5316
▁Eli	-10.5317
kes	-10.532
-3	-10.5322
▁Nar	-10.5325
▁CA	-10.5325
ces	-10.5326
▁1983)	-10.5328
▁Bristol	-10.533
▁ban	-10.5334
▁Sen	-10.5335
▁1984)	-10.5336
▁associate	-10.534
66	-10.534
▁Garden	-10.534
▁1932	-10.5342
▁Walker	-10.5343
▁fossil	-10.5344
▁screenwriter	-10.5344
▁Falls	-10.5344
ME	-10.5345
▁our	-10.5351
▁accepted	-10.5353
▁grown	-10.5353
jan	-10.5354
▁Hunt	-10.5358
▁Frederick	-10.536
▁soft	-10.5361
▁Roll	-10.5363
▁collected	-10.5364
▁shortly	-10.5365
▁AD	-10.5369
▁Orchestra	-10.5372
▁Puerto	-10.5372
▁Urban	-10.5373
▁connection	-10.5383
mid	-10.5384
▁Native	-10.5385
▁Girls	-10.5388
▁Shah	-10.5393
▁Commissioner	-10.5394
▁1998,	-10.5396
▁Rights	-10.5397
nar	-10.5397
▁storage	-10.5401
IA	-10.5401
▁safe	-10.5402
▁counter	-10.5404
▁granted	-10.5407
▁commission	-10.5416
mun	-10.5416
▁Commons	-10.5419
▁Minor	-10.5421
rant	-10.5423
▁Southeast	-10.5423
▁cup	-10.5424
▁fla	-10.5424
PC	-10.5425
▁components	-10.5427
ators	-10.5429
▁canceled	-10.5429
▁Hell	-10.5432
▁hi	-10.5433
▁1986)	-10.5435
gna	-10.5437
▁rich	-10.5437
playing	-10.5438
▁Pakistani	-10.5438
▁pe	-10.5442
▁Front	-10.5443
▁identity	-10.5444
▁ninth	-10.5444
▁personnel	-10.5444
▁1994)	-10.5445
weight	-10.5445
▁biological	-10.5445
dor	-10.5452
▁tissue	-10.5458
▁server	-10.5459
▁Chair	-10.5461
▁Cle	-10.5462
▁Pla	-10.5464
gger	-10.5465
▁str	-10.5466
▁Bush	-10.5471
▁completely	-10.5475
▁Craig	-10.5476
▁treat	-10.5478
▁exclusively	-10.548
▁Mak	-10.5481
▁Gun	-10.5482
▁integrated	-10.5484
▁Rhode	-10.5485
▁equal	-10.5485
Ra	-10.5486
▁initiative	-10.5487
▁1912	-10.549
36	-10.5493
▁filmmaker	-10.55
▁Billy	-10.5501
▁extension	-10.5501
▁Telugu	-10.5501
▁Cass	-10.5503
tail	-10.5503
▁Roger	-10.5504
▁1990.	-10.5511
▁convention	-10.5511
FL	-10.5513
Pa	-10.5514
▁indoor	-10.5515
owned	-10.5516
att	-10.5521
▁definition	-10.5522
▁1987)	-10.5523
rang	-10.5525
▁session	-10.5526
▁opposition	-10.553
▁Marshall	-10.5532
▁formal	-10.5535
▁Pet	-10.5538
▁Plan	-10.5539
▁300	-10.5539
▁epi	-10.5546
▁scientist	-10.5556
▁girls	-10.5558
▁investigation	-10.5559
▁sale	-10.556
ddy	-10.556
▁1914	-10.5563
BS	-10.5564
▁Soul	-10.5565
ridge	-10.5566
▁Portuguese	-10.5567
▁Dog	-10.5569
▁resigned	-10.5569
▁Language	-10.5573
▁Lieutenant	-10.5573
▁writers	-10.5576
fra	-10.5577
▁needed	-10.5578
▁Race	-10.558
▁Bha	-10.5584
▁presenter	-10.5585
▁inaugural	-10.5588
▁aim	-10.5589
els	-10.5591
ctic	-10.5593
▁Wright	-10.5607
ij	-10.5607
▁funding	-10.5612
▁Code	-10.5612
▁progress	-10.5614
▁ser	-10.5617
cat	-10.5623
▁mode	-10.5624
▁cartoon	-10.5625
▁Mass	-10.563
▁49	-10.563
▁leg	-10.5631
▁Jefferson	-10.5631
ids	-10.5631
▁distinguished	-10.5634
▁civilian	-10.5637
▁fuel	-10.5644
88	-10.5646
▁shopping	-10.5646
▁Systems	-10.5649
▁Wei	-10.5649
▁replace	-10.565
▁Vin	-10.5653
▁Rod	-10.5659
▁Infantry	-10.5661
related	-10.5662
▁heads	-10.5664
Mar	-10.5665
hop	-10.5669
▁Cop	-10.567
▁Call	-10.567
card	-10.5675
▁flood	-10.5675
▁lot	-10.5686
meter	-10.5689
▁muscle	-10.569
▁sculpture	-10.569
▁Fund	-10.5696
▁degrees	-10.5697
▁budget	-10.5699
No	-10.5699
▁1933	-10.5702
sure	-10.5704
▁peace	-10.5704
ami	-10.5704
▁attorney	-10.5705
▁throw	-10.5705
▁Gla	-10.5706
▁Baker	-10.5707
38	-10.5709
97	-10.5715
▁Il	-10.5718
bird	-10.5718
LA	-10.5719
▁legislative	-10.5719
▁situation	-10.5721
▁threat	-10.5723
Al	-10.5724
▁Off	-10.5726
unk	-10.5728
▁Mol	-10.5728
▁Digital	-10.5734
▁faculty	-10.5734
▁Tha	-10.5742
NC	-10.5745
ison	-10.5749
▁failure	-10.5749
late	-10.5753
▁Row	-10.5753
▁Crown	-10.5753
▁How	-10.5757
gie	-10.5762
03	-10.5764
▁1923	-10.5767
ester	-10.5771
▁consul	-10.5775
▁1934	-10.5778
▁insurance	-10.5778
▁Squadron	-10.5779
▁Nashville	-10.5779
▁Tal	-10.578
SD	-10.5784
39	-10.5785
ns	-10.5793
▁eleven	-10.5794
▁Steel	-10.5798
5,000	-10.58
▁instrumental	-10.5801
▁internet	-10.581
itt	-10.581
abad	-10.5813
▁1988.	-10.5814
▁Nat	-10.5822
▁Saskatchewan	-10.5823
▁influential	-10.5823
▁kept	-10.5823
▁funded	-10.5829
▁aid	-10.583
▁expression	-10.583
▁1992)	-10.5832
▁Papua	-10.5832
47	-10.5833
▁Wy	-10.5834
▁Jonathan	-10.5838
▁Im	-10.5839
▁42	-10.584
CD	-10.584
▁assist	-10.5841
▁abandoned	-10.5844
▁obtained	-10.5847
▁ways	-10.5847
▁stands	-10.5848
such	-10.585
▁Devon	-10.5851
▁Natural	-10.5853
▁Hav	-10.5856
▁independence	-10.5857
▁bone	-10.5858
▁What	-10.586
▁letter	-10.5861
▁Video	-10.5863
▁voted	-10.5866
▁straight	-10.5868
SE	-10.5868
▁asked	-10.5872
▁consider	-10.5873
heim	-10.5876
▁mile	-10.5877
▁representation	-10.5879
▁creative	-10.5883
▁stood	-10.5883
▁Bible	-10.5883
▁Carr	-10.5885
LP	-10.5888
▁winter	-10.5894
gli	-10.5896
osis	-10.5897
had	-10.5897
▁Industry	-10.5898
▁freshwater	-10.5898
▁Story	-10.5902
▁Die	-10.5907
active	-10.591
▁39	-10.5912
▁Cooper	-10.5912
▁choice	-10.5913
▁FA	-10.5924
Po	-10.5926
▁Carter	-10.5927
▁screenplay	-10.5928
stein	-10.593
▁carry	-10.593
▁beat	-10.5932
▁belongs	-10.5933
▁pool	-10.5935
▁slow	-10.5936
▁soldiers	-10.5938
▁Kel	-10.594
zar	-10.594
▁wrestling	-10.5943
▁progressive	-10.5945
▁brothers	-10.5964
▁grand	-10.5964
▁skills	-10.5964
▁mini	-10.5968
cen	-10.597
▁think	-10.5971
▁parallel	-10.5973
▁Kra	-10.5974
▁losing	-10.5974
▁ending	-10.5976
▁Var	-10.598
CS	-10.5986
▁64	-10.5986
▁wheel	-10.5987
ering	-10.5987
▁Software	-10.5988
▁troops	-10.5988
▁bonus	-10.5988
▁demo	-10.599
▁Montana	-10.599
tress	-10.5996
32	-10.5996
▁1985)	-10.5998
▁parliament	-10.6001
▁introduction	-10.6003
▁Antonio	-10.6006
rose	-10.6007
▁Challenge	-10.6008
▁examples	-10.6012
▁piano	-10.602
96	-10.6027
▁connect	-10.6028
▁mental	-10.6029
nam	-10.6029
▁FIFA	-10.6033
▁debate	-10.6036
▁critic	-10.6044
▁Boys	-10.6044
▁weather	-10.6045
▁proteins	-10.6047
▁neighboring	-10.6047
▁advertising	-10.6048
▁Kennedy	-10.6048
55	-10.6049
▁diverse	-10.6052
ably	-10.6053
▁Punjab	-10.6055
▁coverage	-10.6056
▁em	-10.6059
▁Monte	-10.6065
▁1915	-10.6067
▁justice	-10.6068
ify	-10.6069
▁birds	-10.6073
▁Studio	-10.6073
▁persons	-10.6076
ked	-10.6076
▁Bow	-10.6077
▁Range	-10.6077
▁Revolution	-10.6078
▁clinical	-10.6078
▁broadcasts	-10.6079
▁Adult	-10.608
agin	-10.6082
berry	-10.6082
▁dog	-10.6084
pol	-10.6085
tam	-10.609
▁Gaelic	-10.6094
▁locality	-10.6096
▁opposed	-10.6097
graph	-10.61
2.	-10.6101
ense	-10.6101
▁1969)	-10.6101
▁App	-10.6107
▁negative	-10.6114
omb	-10.6115
rup	-10.6116
▁Filipino	-10.6116
▁strategy	-10.6125
oides	-10.613
▁Gram	-10.6132
▁concerns	-10.6136
eno	-10.6137
▁Zo	-10.6139
▁ni	-10.614
▁Control	-10.614
▁Ur	-10.6144
▁Lil	-10.6145
enberg	-10.6146
hara	-10.6147
▁briefly	-10.6152
▁75	-10.6152
▁Thompson	-10.6155
▁goalkeeper	-10.6156
ced	-10.6156
▁Gene	-10.6157
hat	-10.6158
▁38	-10.6158
100	-10.6168
▁mentioned	-10.617
▁Charlotte	-10.6171
▁swimming	-10.6171
py	-10.6175
▁ceased	-10.6176
NS	-10.6178
▁Sco	-10.6183
▁rec	-10.6184
▁allies	-10.6185
eon	-10.6186
ML	-10.6191
▁Fra	-10.6194
▁span	-10.6196
AT	-10.6198
▁Johnny	-10.6201
▁carbon	-10.6202
▁chamber	-10.6202
▁predecessor	-10.6202
▁serious	-10.6202
fl	-10.6207
load	-10.621
▁Drive	-10.6213
▁composition	-10.6216
▁/	-10.6216
lf	-10.622
Bo	-10.6221
▁funds	-10.6222
▁Lab	-10.6223
▁attached	-10.6223
ender	-10.6227
▁conduct	-10.6227
cel	-10.6228
nate	-10.6228
▁Vic	-10.6229
▁Child	-10.6231
▁Mis	-10.6233
▁Liverpool	-10.6233
▁Manitoba	-10.6233
▁movies	-10.6241
▁items	-10.6243
49	-10.6244
▁bit	-10.6247
▁Mann	-10.6248
▁garden	-10.6248
▁opposite	-10.6248
▁arrangement	-10.6248
▁defeat	-10.6249
▁catch	-10.625
▁Ros	-10.6251
▁1982)	-10.6251
▁beetles	-10.6252
▁Egyptian	-10.6253
take	-10.6253
▁Transit	-10.6254
▁Hans	-10.6255
▁Fin	-10.6256
▁vocal	-10.6257
dium	-10.6262
▁scheme	-10.6264
▁translation	-10.6264
ony	-10.6264
▁der	-10.6264
▁hot	-10.6265
▁publishes	-10.6267
▁topics	-10.6267
RT	-10.6267
▁Grove	-10.6271
dha	-10.6272
adi	-10.6274
▁send	-10.6279
▁fifteen	-10.6279
▁Cathedral	-10.6279
▁Mitchell	-10.628
▁mall	-10.6281
▁pieces	-10.6282
uni	-10.6284
▁colors	-10.6284
cra	-10.6286
▁Operation	-10.6289
CP	-10.6289
▁sole	-10.6291
▁speaker	-10.6295
▁Century	-10.6295
▁entrance	-10.6295
▁Essex	-10.6295
▁ultimately	-10.6298
▁Branch	-10.6298
▁Along	-10.6305
leg	-10.6307
▁thirty	-10.631
▁Cincinnati	-10.631
▁Jimmy	-10.6312
▁Friday	-10.6312
▁matter	-10.6315
▁Five	-10.6316
▁step	-10.6325
▁necessary	-10.6326
▁increasing	-10.6329
▁roughly	-10.6331
▁broke	-10.6331
▁colonial	-10.6336
▁Fer	-10.6336
sley	-10.6338
▁MTV	-10.6338
▁1987.	-10.634
▁harm	-10.634
▁legislation	-10.6342
▁venture	-10.6342
ope	-10.6343
Mi	-10.6344
▁Cri	-10.635
▁1984.	-10.6352
▁fighting	-10.6352
▁1995,	-10.6357
▁jump	-10.6357
▁volleyball	-10.6357
▁Magic	-10.6358
amba	-10.6358
pel	-10.6358
▁cabinet	-10.6359
▁monthly	-10.6361
▁northeastern	-10.6361
▁Bru	-10.6363
▁attacks	-10.6365
▁affected	-10.6367
▁SA	-10.6369
▁Horse	-10.6373
▁Between	-10.6373
▁intelligence	-10.6373
▁charity	-10.6373
▁Lim	-10.6374
▁fell	-10.6377
gor	-10.6379
▁correct	-10.6379
handed	-10.6381
CO	-10.6382
▁ski	-10.6385
▁dancer	-10.6388
▁categories	-10.6389
▁identify	-10.6389
▁Direct	-10.6389
▁severe	-10.6389
▁Emmy	-10.639
▁merger	-10.6392
▁compound	-10.6392
▁Tru	-10.6393
position	-10.6393
▁1913	-10.6393
▁Guy	-10.6394
▁designs	-10.6396
▁producers	-10.6398
▁Arch	-10.6404
▁Somerset	-10.6405
▁conservation	-10.6405
▁Czech	-10.6405
▁designation	-10.6407
▁experiment	-10.6408
▁Jose	-10.6409
▁Chester	-10.641
▁Late	-10.6411
pper	-10.6415
▁purchase	-10.6418
▁dating	-10.6426
▁Lok	-10.6429
▁ensure	-10.643
▁Paralympics	-10.6431
▁select	-10.6431
▁walls	-10.6432
avi	-10.6432
▁wrestler	-10.6436
▁establish	-10.6442
▁Gulf	-10.6442
▁toward	-10.6446
02	-10.6451
ID	-10.6451
chen	-10.6453
▁tourist	-10.6454
▁actors	-10.6455
▁Pala	-10.6456
sca	-10.6458
▁captured	-10.6466
lands	-10.6467
▁grow	-10.6467
▁riding	-10.6468
▁parliamentary	-10.647
lio	-10.6471
▁1890	-10.6473
34	-10.6474
▁interview	-10.6474
▁Sav	-10.6475
▁exception	-10.648
phe	-10.648
▁finance	-10.6484
▁pattern	-10.6489
▁Bern	-10.649
morph	-10.6491
▁occupied	-10.6493
wn	-10.6495
▁trail	-10.6497
44	-10.6497
via	-10.6499
▁clean	-10.65
▁Thi	-10.65
▁Movie	-10.6501
▁bay	-10.6505
MI	-10.6508
▁veteran	-10.6515
▁hardware	-10.6517
ional	-10.6518
▁southeastern	-10.6519
▁northwestern	-10.6519
▁powerful	-10.6526
kins	-10.6531
▁Norfolk	-10.6532
▁Andhra	-10.6532
AF	-10.6532
▁boundary	-10.6533
▁1983.	-10.654
▁Dia	-10.6541
▁Bir	-10.6542
▁Fall	-10.6542
▁testing	-10.6543
▁orchestra	-10.6543
ien	-10.6548
▁1000	-10.6548
▁Blood	-10.6549
▁anchor	-10.6549
▁Stanley	-10.655
▁Ap	-10.6559
final	-10.656
▁Gall	-10.6561
▁gives	-10.6566
▁Robinson	-10.6566
▁originated	-10.6567
uru	-10.6568
nut	-10.6568
▁Kil	-10.657
▁spider	-10.6572
▁Model	-10.6573
31	-10.6574
▁(20	-10.6576
68	-10.6577
chief	-10.658
▁Keith	-10.6581
▁intersection	-10.6581
dict	-10.6584
▁1931	-10.6586
▁ride	-10.6592
▁violence	-10.6595
lain	-10.6596
▁Sho	-10.6596
▁owners	-10.6599
▁Gill	-10.6602
▁patients	-10.6607
mir	-10.661
▁1980)	-10.6611
▁Lloyd	-10.6612
▁gender	-10.6613
cot	-10.6613
▁Scout	-10.6613
▁Perth	-10.6614
▁Andy	-10.6618
▁Syn	-10.6619
English	-10.6621
67	-10.6621
▁details	-10.6623
▁achieve	-10.6623
▁banks	-10.6626
▁1985.	-10.6627
bach	-10.6627
▁goods	-10.6629
▁infantry	-10.6629
▁solid	-10.663
▁Ridge	-10.6632
lle	-10.6632
▁novelist	-10.6633
SU	-10.6634
46	-10.6636
far	-10.6639
West	-10.664
▁monument	-10.6644
mbo	-10.6646
▁brief	-10.6648
▁1964)	-10.665
▁1982.	-10.665
RE	-10.665
OC	-10.6654
ingham	-10.6657
▁Romania	-10.6659
▁believe	-10.6659
▁practices	-10.6659
▁controversial	-10.666
▁educator	-10.666
▁appeal	-10.666
▁portrayed	-10.6662
▁weapons	-10.6665
▁gay	-10.6666
▁Med	-10.6671
▁Malaysian	-10.6672
nel	-10.6675
▁Last	-10.6675
▁Alfred	-10.6676
nn	-10.6677
rian	-10.668
▁Secondary	-10.6682
▁package	-10.6686
AL	-10.6687
lit	-10.6688
▁Ever	-10.6691
▁Movement	-10.6692
▁liquid	-10.6692
▁Junction	-10.6692
▁appointment	-10.6694
IM	-10.6694
ES	-10.6697
▁150	-10.6697
cio	-10.6698
▁Bio	-10.6702
uz	-10.6703
tum	-10.6703
▁AFL	-10.6704
▁terrestrial	-10.6709
▁settled	-10.6709
▁Blues	-10.6709
pra	-10.671
▁Bird	-10.6711
▁images	-10.6711
▁maintain	-10.6712
▁specialist	-10.6713
▁request	-10.6717
▁Az	-10.6719
▁McK	-10.672
▁Hope	-10.6724
▁landscape	-10.6726
▁fighter	-10.6731
▁Hunter	-10.6735
▁households	-10.6735
▁Circuit	-10.6741
48	-10.6743
idi	-10.6744
▁us	-10.6748
▁Ny	-10.6749
▁governing	-10.675
▁geologic	-10.6752
▁express	-10.6756
▁inhabitants	-10.6758
▁submarine	-10.6758
▁Peace	-10.6759
▁Our	-10.6764
▁cor	-10.6765
▁developer	-10.6766
SR	-10.6766
▁Victor	-10.6768
▁element	-10.6769
PR	-10.6769
▁say	-10.6769
▁Electric	-10.677
▁returning	-10.6773
▁formally	-10.6776
▁37	-10.6782
▁HMS	-10.6783
▁roll	-10.6783
▁protected	-10.6784
▁Cole	-10.6785
▁communications	-10.6786
▁44	-10.6792
▁sand	-10.6792
▁actual	-10.6796
listed	-10.6796
ello	-10.6796
▁locally	-10.6797
link	-10.6799
▁blues	-10.6803
▁rival	-10.6803
▁determined	-10.6806
▁motorcycle	-10.6807
▁talent	-10.6807
▁Page	-10.681
▁sw	-10.6812
ici	-10.6814
▁flower	-10.6818
64	-10.6822
▁Death	-10.6836
▁documents	-10.6838
▁easily	-10.6839
▁Auckland	-10.6839
▁creator	-10.6843
RO	-10.6844
▁Action	-10.6848
▁advance	-10.685
▁ga	-10.6851
ull	-10.6854
▁cluster	-10.6856
▁perhaps	-10.6856
EA	-10.6856
▁Clo	-10.6857
kov	-10.6862
▁ordered	-10.6865
gro	-10.6867
▁Ukraine	-10.6872
▁junction	-10.6872
brook	-10.6874
▁Third	-10.6874
▁platforms	-10.6874
▁styles	-10.6875
▁Sab	-10.6876
▁income	-10.6879
rated	-10.688
▁require	-10.688
▁Saints	-10.6882
Do	-10.6883
▁1978)	-10.6887
▁physician	-10.6889
▁Margaret	-10.6889
▁Denver	-10.6891
▁el	-10.6893
ito	-10.6897
57	-10.6899
▁Even	-10.6904
▁Beat	-10.6905
▁LLC	-10.6908
▁gray	-10.691
78	-10.6911
▁Harrison	-10.6914
▁Kumar	-10.6914
▁Ob	-10.6921
▁explain	-10.6922
▁fixed	-10.6922
night	-10.6927
▁tend	-10.6928
▁IV	-10.6932
▁twin	-10.6932
▁Israeli	-10.6936
-17	-10.6936
▁collections	-10.6938
▁Exchange	-10.6939
▁Newcastle	-10.6939
anti	-10.6946
▁attempts	-10.6946
3.	-10.6946
▁molecular	-10.6947
General	-10.6951
▁load	-10.6953
▁artistic	-10.6953
▁Nation	-10.6955
▁salt	-10.6957
▁paid	-10.6959
77	-10.696
▁Palm	-10.6964
OR	-10.6965
42	-10.6967
▁indicate	-10.6971
▁NY	-10.6973
▁benefit	-10.6973
vic	-10.6974
▁freedom	-10.6974
▁Evans	-10.6975
▁tenth	-10.6978
quin	-10.6983
▁Brunswick	-10.6989
pot	-10.6989
▁understanding	-10.6996
▁confirmed	-10.6998
59	-10.6998
▁Indoor	-10.7
cept	-10.7001
▁dropped	-10.7006
▁task	-10.701
▁Count	-10.701
▁Beck	-10.701
tti	-10.7014
▁Opera	-10.7015
▁charted	-10.7016
mouth	-10.7019
▁drawn	-10.7019
lies	-10.7019
▁martial	-10.7022
▁ocean	-10.7022
61	-10.7024
▁Euro	-10.7028
ridae	-10.7028
▁Golf	-10.7032
▁singing	-10.7035
AN	-10.7036
▁Rai	-10.7037
▁ti	-10.7038
▁Brigade	-10.7039
bla	-10.704
▁Sudan	-10.7041
▁1994,	-10.7043
member	-10.7047
Ireland	-10.7052
▁strength	-10.7054
▁animation	-10.7056
▁Every	-10.7058
oriented	-10.706
▁premiere	-10.7061
43	-10.7062
▁villages	-10.707
hang	-10.707
▁professionally	-10.7074
▁1979)	-10.7075
▁1908	-10.7076
▁implementation	-10.7078
▁Ay	-10.7079
fic	-10.708
▁electro	-10.7084
inger	-10.7086
▁watch	-10.7088
nus	-10.7089
▁Freedom	-10.709
rad	-10.709
▁Economic	-10.7094
▁attend	-10.7096
▁tube	-10.7099
▁Gan	-10.7102
▁scoring	-10.7106
▁toured	-10.7109
▁successfully	-10.7113
aire	-10.7117
cular	-10.712
▁Trail	-10.712
▁Support	-10.7123
▁Uttar	-10.7123
▁thick	-10.7124
▁Bureau	-10.7124
▁Vermont	-10.7125
▁Bulgaria	-10.7129
▁photography	-10.713
▁Blo	-10.713
uma	-10.7132
▁Lor	-10.7134
CT	-10.7134
▁speak	-10.7137
fiction	-10.7139
▁undergraduate	-10.7141
rel	-10.7145
▁Qua	-10.7149
▁sections	-10.715
eta	-10.7153
▁respect	-10.7155
▁shooting	-10.7155
gene	-10.7156
▁Bat	-10.7157
▁Contemporary	-10.7157
▁climate	-10.7157
▁comprehensive	-10.7157
▁descent	-10.7158
▁electrical	-10.7159
lee	-10.716
LC	-10.7161
▁supports	-10.7163
iva	-10.7169
vant	-10.7169
▁Lancashire	-10.7174
▁transmitter	-10.7175
eck	-10.7175
▁tail	-10.7176
▁48	-10.7183
▁hero	-10.7184
▁Side	-10.7185
▁Mumbai	-10.7191
▁technologies	-10.7191
▁aims	-10.7192
▁rear	-10.7193
▁1947)	-10.7198
▁Non	-10.7198
▁Eye	-10.7199
79	-10.7199
▁save	-10.7201
HL	-10.7202
▁trust	-10.7206
ET	-10.7206
▁boys	-10.7212
▁1970)	-10.7212
▁wins	-10.7214
▁Commander	-10.7215
▁drawing	-10.7219
▁Bol	-10.722
omi	-10.722
▁letters	-10.722
ened	-10.722
▁Hum	-10.7222
▁Cork	-10.7222
▁Associate	-10.7224
▁Beijing	-10.7225
where	-10.7227
▁stem	-10.7229
▁shares	-10.723
▁UN	-10.723
▁Rub	-10.7231
trop	-10.7233
DS	-10.7233
▁scholar	-10.7237
ident	-10.7238
▁engines	-10.7238
▁commander	-10.7239
lem	-10.724
76	-10.7241
▁happened	-10.7241
cum	-10.7242
stan	-10.7244
arn	-10.7245
▁guide	-10.7245
▁trace	-10.7247
93	-10.7248
CDP	-10.7254
▁te	-10.7254
▁Methodist	-10.7261
fort	-10.7265
cht	-10.7266
oh	-10.7268
quar	-10.727
▁Ir	-10.7273
▁actions	-10.7274
EP	-10.7276
IL	-10.7277
▁Ry	-10.7277
▁instance	-10.7277
▁Poly	-10.7279
▁Kha	-10.7284
▁1962)	-10.7285
▁add	-10.7285
DE	-10.7286
▁competes	-10.7286
lau	-10.7289
Me	-10.7292
written	-10.7292
itis	-10.7292
central	-10.7293
▁disbanded	-10.7294
▁MA	-10.7298
▁Lind	-10.7299
▁touring	-10.7299
▁1963)	-10.73
body	-10.7302
▁transportation	-10.7303
tidae	-10.7304
▁Robin	-10.7306
lyn	-10.7311
▁Cameroon	-10.7311
▁driving	-10.7311
foot	-10.7311
▁cre	-10.7312
▁pra	-10.7313
▁weekend	-10.7313
bha	-10.7315
▁underground	-10.7316
41	-10.7325
vor	-10.7331
▁Democrat	-10.7333
▁broken	-10.7336
ema	-10.7338
▁1979.	-10.7339
llo	-10.734
▁Storm	-10.7341
sign	-10.7345
▁Attorney	-10.7346
▁Orthodox	-10.7346
▁trading	-10.7346
rov	-10.7348
uda	-10.7349
▁accept	-10.7351
▁arena	-10.7352
▁cards	-10.7354
▁Cast	-10.7355
▁nu	-10.7359
▁Establish	-10.7363
▁Derby	-10.7364
▁Baronet	-10.7365
▁Mul	-10.7365
▁pet	-10.7365
▁Snow	-10.7366
▁Rail	-10.7366
▁Rama	-10.7368
dent	-10.737
▁Northwest	-10.737
clo	-10.7372
▁horses	-10.7373
▁Len	-10.7375
▁requirements	-10.738
▁equivalent	-10.7381
▁kick	-10.7385
eva	-10.7392
rag	-10.7396
50,000	-10.7397
▁surviving	-10.7398
▁snake	-10.7398
▁vessels	-10.7402
▁passengers	-10.7408
▁fishing	-10.7409
▁pale	-10.741
▁Horn	-10.7412
▁amongst	-10.7413
▁Kirk	-10.7413
72	-10.7415
▁Taiwan	-10.7415
▁framework	-10.7417
▁ownership	-10.7418
▁Fiji	-10.7419
▁Pol	-10.7419
▁fer	-10.7419
stead	-10.7426
▁transition	-10.7427
▁Tin	-10.7427
elected	-10.7431
▁Kill	-10.7432
▁external	-10.7433
▁1967)	-10.7434
▁maximum	-10.7434
selling	-10.7439
▁fleet	-10.744
▁expert	-10.7446
▁Bla	-10.7446
▁replacing	-10.745
▁flying	-10.7451
▁Sto	-10.7454
▁sym	-10.7455
▁doctor	-10.7455
bank	-10.7456
▁chance	-10.7456
▁1911	-10.7456
scale	-10.7458
▁obtain	-10.7458
▁1959)	-10.7458
rage	-10.7463
ement	-10.7466
TE	-10.7466
▁Manhattan	-10.7468
▁advantage	-10.7468
73	-10.7468
▁grades	-10.7471
itz	-10.7474
▁lord	-10.7475
igh	-10.7476
shan	-10.7479
▁Barr	-10.7479
Ar	-10.7485
▁Ottawa	-10.7485
read	-10.7492
▁employ	-10.7493
▁occasionally	-10.7493
▁Gate	-10.7499
▁boundaries	-10.7503
▁Whi	-10.7504
▁Work	-10.7504
▁tells	-10.7505
DC	-10.7512
▁1966)	-10.7513
▁administered	-10.7514
▁detect	-10.7516
▁Oliver	-10.7517
▁Champions	-10.7518
▁Policy	-10.7521
▁1971)	-10.7521
▁Terry	-10.7526
▁Daily	-10.7528
gus	-10.7529
▁Grace	-10.753
pher	-10.753
ald	-10.7532
sson	-10.7534
▁Susan	-10.7536
ED	-10.7547
▁measure	-10.7547
▁Brad	-10.7552
53	-10.7554
ann	-10.7555
▁congregation	-10.7556
▁mollusc	-10.7556
▁importance	-10.7556
▁linked	-10.7559
▁classification	-10.7559
▁peaking	-10.7567
▁factors	-10.757
▁Ji	-10.757
▁airing	-10.7571
▁anniversary	-10.7573
▁indigenous	-10.7573
▁Vincent	-10.7574
▁va	-10.7574
▁onto	-10.7575
▁Set	-10.7575
▁1995)	-10.758
▁dress	-10.7584
▁(1	-10.7584
▁Fur	-10.7588
▁Care	-10.759
▁Secret	-10.759
▁installed	-10.7592
ways	-10.7593
▁computers	-10.7593
▁1968)	-10.7598
▁suggest	-10.7598
▁trip	-10.7598
etic	-10.7598
cott	-10.7599
▁concluded	-10.7601
duc	-10.7602
▁retained	-10.7602
▁Islam	-10.7606
▁Sussex	-10.7609
▁Charlie	-10.761
mia	-10.7612
▁Gang	-10.7613
rea	-10.7614
▁highlight	-10.7617
kers	-10.7618
▁tell	-10.7619
nell	-10.7621
▁fu	-10.7622
▁41	-10.7626
▁Mediterranean	-10.7627
▁catalog	-10.7627
▁demolished	-10.7627
▁industries	-10.7627
RS	-10.7628
pic	-10.763
▁ste	-10.7634
▁sto	-10.7634
▁analog	-10.7635
los	-10.7637
56	-10.764
▁Fun	-10.7643
▁centimeters	-10.7643
▁installation	-10.7645
▁Leone	-10.7647
▁Oakland	-10.7649
▁retain	-10.765
58	-10.7652
▁divisions	-10.7654
ote	-10.7654
▁Bran	-10.7656
▁nominations	-10.7658
▁bomb	-10.7658
▁bacteria	-10.766
▁diocese	-10.7662
▁Madison	-10.7663
▁Collins	-10.7663
▁plus	-10.7667
boy	-10.7667
gia	-10.7668
▁Sher	-10.7668
▁observed	-10.7669
arrow	-10.767
▁orbit	-10.7673
▁Penn	-10.7674
▁diver	-10.7674
▁shop	-10.7675
▁Salt	-10.7676
▁Benjamin	-10.768
emi	-10.7681
▁pitcher	-10.7682
71	-10.7682
84	-10.7682
▁receiver	-10.7684
boro	-10.7687
sie	-10.7689
▁Villa	-10.7693
akh	-10.7694
▁door	-10.7695
▁Wyoming	-10.7698
lig	-10.7699
▁stay	-10.7703
▁snow	-10.7703
hold	-10.7713
51	-10.7714
▁earth	-10.7714
tile	-10.7715
ocera	-10.7715
▁meant	-10.7716
▁departure	-10.7716
tics	-10.7716
69	-10.7716
▁Bernard	-10.7719
▁recognize	-10.7724
▁Training	-10.7725
▁reading	-10.7726
asi	-10.7728
▁ge	-10.7729
▁things	-10.773
▁ruled	-10.773
▁Nazi	-10.7733
▁Track	-10.7733
▁Episcopal	-10.7734
▁policies	-10.7734
▁protocol	-10.7734
▁normally	-10.7735
▁duties	-10.7735
▁Gallery	-10.7735
ret	-10.7735
▁resident	-10.7736
▁Swa	-10.7738
dio	-10.7741
fire	-10.7741
▁Upon	-10.7742
▁pain	-10.7742
Be	-10.7745
▁Bear	-10.7747
hour	-10.7747
▁Hai	-10.7748
dam	-10.7748
HA	-10.7751
▁1974)	-10.7751
hand	-10.7752
▁terminal	-10.7752
▁Berkeley	-10.7752
▁authors	-10.7753
▁Dennis	-10.7753
▁Cinema	-10.7755
▁replacement	-10.7756
▁Nam	-10.7756
▁Thr	-10.7761
ished	-10.7761
AD	-10.7766
▁aged	-10.7767
▁Phoenix	-10.777
▁metropolitan	-10.777
nagar	-10.7773
▁sample	-10.7774
▁row	-10.7776
▁reporter	-10.7777
▁Sarah	-10.7778
▁Cold	-10.7779
▁artwork	-10.7779
pers	-10.7782
▁OS	-10.7784
63	-10.7788
▁infrastructure	-10.7788
▁struggle	-10.7788
▁truck	-10.7789
▁defeating	-10.779
bed	-10.7794
▁55	-10.7803
▁write	-10.7804
▁Moscow	-10.7806
▁responsibility	-10.7806
▁check	-10.7807
▁Performance	-10.7807
▁IP	-10.7812
▁RNA	-10.7812
▁bond	-10.7813
To	-10.7818
rio	-10.782
II	-10.7822
▁Clinton	-10.7825
life	-10.7826
ON	-10.7829
ecu	-10.7831
▁bacterium	-10.7832
▁gang	-10.7834
▁Low	-10.7834
▁abuse	-10.7835
▁NBA	-10.7835
▁strike	-10.7835
▁Milan	-10.7835
▁Season	-10.7837
kel	-10.7839
▁Argentine	-10.7843
▁fame	-10.7847
62	-10.7854
nova	-10.7859
▁separated	-10.7862
▁apply	-10.7865
▁armed	-10.7865
▁translated	-10.7866
oper	-10.7867
▁ITV	-10.7867
▁1955)	-10.7877
▁celebrated	-10.7878
▁relat	-10.7879
▁Industrial	-10.7879
▁Scientific	-10.7879
alia	-10.7886
Man	-10.7886
▁1996)	-10.789
▁1976)	-10.7891
Da	-10.7892
produced	-10.7895
▁Enterprise	-10.7898
▁phrase	-10.7898
▁carrier	-10.7898
▁Heights	-10.7899
eus	-10.79
▁concerts	-10.79
SO	-10.79
▁Transportation	-10.7901
ique	-10.7901
▁attraction	-10.7901
▁52	-10.7902
▁Ground	-10.7902
rah	-10.7905
▁Hur	-10.7906
▁Charter	-10.7906
▁Pie	-10.7908
▁consumer	-10.7908
▁43	-10.791
vat	-10.7914
▁Portugal	-10.7916
▁Metal	-10.7921
▁Nature	-10.7922
▁scenes	-10.7922
▁qualifying	-10.7923
▁1960)	-10.7924
▁lock	-10.7924
▁Form	-10.7927
▁subjects	-10.7928
▁wooden	-10.7932
▁forming	-10.7934
▁Mut	-10.7943
hard	-10.7945
eli	-10.7945
▁1957)	-10.7947
▁Marc	-10.7948
rm	-10.7949
▁Bros	-10.795
▁printed	-10.795
▁Amsterdam	-10.7953
▁1906	-10.7956
▁pageant	-10.7957
▁Ring	-10.796
▁sort	-10.796
▁Brand	-10.7961
▁tape	-10.7965
▁Based	-10.7969
▁suit	-10.797
▁net	-10.7971
▁Small	-10.7972
tech	-10.7973
▁Works	-10.7976
▁customers	-10.7976
▁Colombia	-10.7977
▁Jamaica	-10.7979
ode	-10.798
▁surrounded	-10.798
opsis	-10.7981
phi	-10.7982
pu	-10.7983
▁roots	-10.7984
mma	-10.7987
ifi	-10.7991
▁wanted	-10.7992
▁organic	-10.7994
▁marketed	-10.8001
▁views	-10.8001
▁1954)	-10.8006
▁Tokyo	-10.8008
▁offensive	-10.8008
▁Hudson	-10.8008
▁mon	-10.8012
wen	-10.8012
▁grounds	-10.8018
▁Zimbabwe	-10.8019
pus	-10.8022
54	-10.8025
cro	-10.8031
▁requires	-10.8032
▁assets	-10.8033
▁latest	-10.8033
▁x	-10.8038
▁tele	-10.8044
▁remote	-10.8045
▁SC	-10.8048
▁Fisher	-10.8056
▁1973)	-10.8058
▁1961)	-10.806
▁sitcom	-10.8065
stall	-10.8067
▁soul	-10.8075
▁manufacture	-10.8075
▁keyboard	-10.8081
▁magic	-10.8081
than	-10.8081
▁Nicholas	-10.8082
▁Trinity	-10.8082
▁stretch	-10.8082
▁Swan	-10.8083
▁ranging	-10.8084
itch	-10.8084
itu	-10.8085
▁Marie	-10.8086
▁physics	-10.8097
▁subspecies	-10.8101
▁weak	-10.8102
▁enforcement	-10.8102
4.	-10.8105
ground	-10.811
▁operational	-10.8111
▁Durham	-10.8112
▁Mega	-10.8113
▁sail	-10.8116
Ca	-10.8119
▁merchant	-10.812
▁psychology	-10.812
▁1975)	-10.8121
▁1992,	-10.8122
▁traditionally	-10.8122
TS	-10.8124
▁Leeds	-10.8129
▁Parker	-10.813
▁buy	-10.8131
▁occasions	-10.8133
▁Mason	-10.8133
▁drums	-10.8137
▁exercise	-10.8138
▁legislature	-10.8138
▁Stanford	-10.814
sized	-10.8142
▁Der	-10.8142
season	-10.8143
▁Cou	-10.8144
▁provision	-10.8145
▁provider	-10.8147
▁rhythm	-10.8148
▁Ras	-10.8149
▁Helen	-10.815
▁1977)	-10.815
etti	-10.8153
▁Rico	-10.8153
▁mineral	-10.8156
▁Assistant	-10.8157
▁ensemble	-10.8157
▁illegal	-10.8157
▁lay	-10.8157
NT	-10.8157
▁Barb	-10.8162
bie	-10.8166
▁suffered	-10.8166
front	-10.8167
▁festivals	-10.8169
▁dynamic	-10.817
▁craft	-10.817
▁minute	-10.8171
eni	-10.8172
▁bowl	-10.8172
IT	-10.8173
52	-10.8173
▁NA	-10.8175
▁Imperial	-10.8176
▁opinion	-10.8176
▁vinyl	-10.8176
▁theatrical	-10.8176
tine	-10.818
▁1949)	-10.8182
▁Drama	-10.8182
PI	-10.8182
▁affairs	-10.8183
▁striker	-10.8184
odes	-10.8184
▁suggested	-10.8187
▁Perry	-10.8192
▁routes	-10.8196
▁Stakes	-10.8196
▁acres	-10.8197
▁bug	-10.8198
struc	-10.8198
▁objective	-10.8199
▁Rangers	-10.82
▁Costa	-10.82
dre	-10.8204
▁privately	-10.8204
▁46	-10.8209
▁learn	-10.821
▁1981.	-10.8212
sol	-10.8214
▁Sai	-10.8214
▁Barbara	-10.8214
▁restored	-10.822
▁1965)	-10.8221
nom	-10.8228
▁tournaments	-10.8228
ota	-10.8229
▁coached	-10.823
▁shooter	-10.8231
▁thin	-10.8232
▁Din	-10.8234
▁1904	-10.8235
ees	-10.8238
▁solar	-10.8239
▁Chile	-10.8243
▁Karl	-10.8244
▁1976.	-10.8245
▁rider	-10.8247
▁mathematics	-10.8251
▁syndrome	-10.8251
▁voting	-10.8252
▁neuro	-10.8254
▁mean	-10.8256
▁headed	-10.8257
high	-10.8259
▁Turner	-10.8265
HF	-10.8269
▁NASCAR	-10.827
▁consultant	-10.827
▁squadron	-10.8272
uf	-10.8273
▁extensively	-10.8273
▁Historical	-10.8279
order	-10.828
sman	-10.8282
▁intention	-10.8284
▁Athens	-10.829
▁statement	-10.829
cor	-10.829
▁managing	-10.8291
ott	-10.8291
▁finger	-10.8292
▁Released	-10.8293
▁Films	-10.8293
▁favorite	-10.8294
▁HD	-10.8301
▁Deep	-10.8303
bot	-10.8304
▁Div	-10.8305
ographic	-10.8305
▁constituencies	-10.8308
▁Tennis	-10.8309
▁fiber	-10.831
▁predominantly	-10.8311
▁Leader	-10.8312
▁habitats	-10.8312
▁useful	-10.8315
▁Members	-10.8316
▁acoustic	-10.8318
mine	-10.832
hun	-10.8323
-10	-10.8324
uan	-10.8326
We	-10.8326
hir	-10.8326
▁MS	-10.8327
▁Communist	-10.8328
fly	-10.8328
▁something	-10.8329
▁1974.	-10.8331
▁1978.	-10.8332
▁repair	-10.8347
▁Jerry	-10.8349
▁factory	-10.8352
▁map	-10.8354
omo	-10.8361
ush	-10.8362
phil	-10.8364
▁Transport	-10.8364
▁Calgary	-10.8366
▁Sheffield	-10.8366
▁Idaho	-10.8366
▁survive	-10.8367
▁quite	-10.8368
▁65	-10.8369
craft	-10.837
Star	-10.8372
▁Gay	-10.8374
▁rapid	-10.8376
ppa	-10.8378
▁cargo	-10.8379
▁Joan	-10.838
▁moist	-10.8381
ega	-10.8386
▁Julian	-10.8387
▁Anton	-10.8398
▁themes	-10.8399
▁inner	-10.84
making	-10.8401
iana	-10.8402
▁genres	-10.8402
▁Ple	-10.8403
▁instruction	-10.8403
▁1948)	-10.8403
▁Nintendo	-10.8404
▁Pot	-10.8407
met	-10.8408
▁Palace	-10.8408
▁ideas	-10.8411
cca	-10.8411
mill	-10.8411
▁Pine	-10.8412
▁sing	-10.8417
how	-10.8418
▁Neil	-10.8419
▁crossing	-10.842
▁Socialist	-10.8425
▁Until	-10.8425
▁Monday	-10.8426
▁output	-10.8429
▁1958)	-10.8437
▁emergency	-10.8443
▁valid	-10.8443
uro	-10.8444
zen	-10.8444
▁Counties	-10.8445
char	-10.8445
▁index	-10.8446
▁distinctive	-10.8448
▁1972)	-10.8448
▁Data	-10.845
▁lasted	-10.8453
ido	-10.8456
bell	-10.8459
▁marks	-10.8459
PL	-10.846
away	-10.8461
▁Madagascar	-10.8462
▁YouTube	-10.8462
▁Actor	-10.8467
CR	-10.8469
▁Chu	-10.8471
rig	-10.8471
▁denomination	-10.8472
LS	-10.8475
cis	-10.8476
rist	-10.8477
PP	-10.8478
▁bri	-10.848
▁visible	-10.8482
▁landmark	-10.8484
-5	-10.8485
▁1953)	-10.8487
▁Larry	-10.8488
▁Fal	-10.8489
ogen	-10.8495
elia	-10.8496
▁von	-10.8498
▁Wo	-10.8498
▁cemetery	-10.8501
▁occupation	-10.8501
▁License	-10.8501
▁naval	-10.8502
tone	-10.8505
apa	-10.8506
illo	-10.8507
ech	-10.8508
▁alone	-10.8511
▁Bag	-10.8511
▁studios	-10.8513
▁revealed	-10.8518
▁47	-10.8519
▁Diamond	-10.8521
Sa	-10.8521
▁1952)	-10.8522
bound	-10.8523
-8	-10.8524
▁competitors	-10.8524
▁Rev	-10.8525
imed	-10.8525
▁arrived	-10.8526
▁export	-10.8526
▁biology	-10.8526
roy	-10.8532
▁pin	-10.8532
▁collect	-10.8533
etta	-10.8537
lk	-10.8538
▁historically	-10.8539
▁variable	-10.854
lane	-10.854
zon	-10.8541
▁inducted	-10.8542
▁1909	-10.8543
▁Michel	-10.8544
▁1956)	-10.8545
ois	-10.8546
▁depend	-10.8548
▁values	-10.855
▁Zambia	-10.8557
gil	-10.8558
▁voters	-10.8563
▁maintains	-10.8566
▁Bou	-10.8566
▁deliver	-10.8574
▁cave	-10.8577
▁viewers	-10.8578
▁discover	-10.8578
▁Provincial	-10.8579
▁abolished	-10.8579
igan	-10.8579
▁thousands	-10.858
ska	-10.8582
maker	-10.8588
▁boxer	-10.859
▁Phy	-10.8592
hra	-10.8593
tun	-10.8594
▁promoting	-10.8599
▁Canal	-10.8599
▁Linux	-10.8599
media	-10.86
▁Knight	-10.86
▁herb	-10.8602
▁Additionally	-10.8604
▁drugs	-10.8606
-6	-10.8608
▁syn	-10.8609
▁Round	-10.8612
▁begin	-10.8616
▁broadcaster	-10.8616
▁causing	-10.8618
▁sought	-10.8619
▁assistance	-10.862
▁schedule	-10.862
▁premier	-10.862
▁experiences	-10.8621
▁Qui	-10.8625
▁Representative	-10.8625
vert	-10.8628
▁engaged	-10.8629
▁clothing	-10.863
▁Wells	-10.863
▁cru	-10.863
▁Sat	-10.8631
ago	-10.8632
hem	-10.8635
otic	-10.8637
▁fat	-10.8638
▁modified	-10.8638
▁wa	-10.8639
▁sets	-10.864
▁Sor	-10.8645
teen	-10.8646
cas	-10.8655
▁legend	-10.8657
▁limit	-10.8658
▁arranged	-10.8658
▁destination	-10.8658
▁enterprise	-10.8658
▁maintenance	-10.8658
▁telephone	-10.8658
▁Spirit	-10.8658
later	-10.866
▁Guild	-10.8663
▁athletic	-10.8666
▁1950)	-10.8667
▁grant	-10.8672
pul	-10.8674
▁Pad	-10.8676
▁Ky	-10.8677
▁whilst	-10.8677
▁alternate	-10.8678
▁virus	-10.8678
▁freestyle	-10.868
rom	-10.8687
▁spiders	-10.8688
▁profit	-10.8689
▁resource	-10.8691
▁NHL	-10.8696
pass	-10.8696
▁participating	-10.8697
▁Vegas	-10.8697
▁cited	-10.8697
▁transmission	-10.8698
▁prime	-10.8699
▁Dragon	-10.8699
▁raise	-10.8705
▁mail	-10.8708
iki	-10.871
▁bid	-10.871
IF	-10.8712
▁wear	-10.8714
▁Bachelor	-10.8717
▁Surrey	-10.8717
ante	-10.8718
▁lift	-10.872
▁portions	-10.872
▁Fel	-10.8725
▁graphic	-10.8725
▁Sid	-10.8727
▁goes	-10.8736
▁rain	-10.8737
▁Edmonton	-10.8737
▁Built	-10.8737
▁Outstanding	-10.8737
▁perennial	-10.8737
▁Machine	-10.8738
▁passing	-10.8739
▁1907	-10.874
▁chi	-10.874
endra	-10.8743
▁log	-10.8745
▁channels	-10.8745
▁1946)	-10.8748
▁Masters	-10.8753
▁exists	-10.8756
▁Google	-10.8757
▁Legend	-10.8758
dol	-10.8759
▁1951)	-10.8762
▁housed	-10.8763
phen	-10.8764
▁exhibition	-10.877
▁Indianapolis	-10.8777
▁infection	-10.8779
▁dispute	-10.8779
hawk	-10.8779
▁sessions	-10.8782
▁implement	-10.8782
So	-10.8784
▁Tasmania	-10.8786
▁Vel	-10.8788
▁cal	-10.8788
▁1972.	-10.8791
▁defending	-10.8793
▁patrol	-10.8797
▁Previously	-10.8799
▁usage	-10.88
▁Walt	-10.8803
▁frequent	-10.8804
distance	-10.8806
▁Py	-10.8809
▁Mother	-10.8809
▁differences	-10.8813
▁Ambassador	-10.8817
▁Milwaukee	-10.8817
▁subdivision	-10.8817
▁spiritual	-10.8817
▁description	-10.882
lid	-10.882
▁Had	-10.8821
▁Saudi	-10.8821
▁try	-10.8821
▁Are	-10.8823
▁Ang	-10.8824
▁fear	-10.8826
▁Av	-10.8827
▁Ave	-10.8828
▁coat	-10.8829
▁governments	-10.8831
▁Lynn	-10.8831
▁poem	-10.8832
▁discussion	-10.8837
▁temperature	-10.8837
▁Stuart	-10.8837
▁Bab	-10.8838
▁Murphy	-10.8838
▁criticized	-10.8839
sar	-10.884
ule	-10.884
▁Box	-10.8851
tens	-10.8855
por	-10.8859
mbi	-10.8862
▁Hawk	-10.8863
she	-10.8866
tell	-10.8868
▁Rap	-10.8869
▁Hawaii	-10.887
▁protest	-10.8872
▁finding	-10.8873
▁hole	-10.8875
eau	-10.8876
▁dialect	-10.8877
▁Amazon	-10.8877
▁banner	-10.888
▁1975.	-10.888
▁conventional	-10.8883
▁Nine	-10.8885
▁Crime	-10.8885
▁Venezuela	-10.8887
activated	-10.8888
asa	-10.889
main	-10.889
▁independently	-10.8891
hoe	-10.8893
▁Anglo	-10.8895
▁Dragons	-10.8899
orn	-10.89
empt	-10.89
▁Berg	-10.89
▁adults	-10.89
game	-10.8904
74	-10.8905
▁doing	-10.8907
▁Ethiopia	-10.8907
▁Publishing	-10.8909
piece	-10.891
New	-10.8913
▁Such	-10.8916
▁batsman	-10.8918
▁Comedy	-10.8919
▁1880	-10.8919
cula	-10.8921
▁Rogers	-10.8922
flu	-10.8922
▁Bass	-10.8924
▁Eagles	-10.8925
▁Card	-10.8925
▁influences	-10.8927
▁fund	-10.8928
▁mechanical	-10.8931
▁rap	-10.8934
▁discovery	-10.8934
▁Conservation	-10.8938
▁mainstream	-10.8939
▁Leonard	-10.8941
▁Dev	-10.8942
▁Zi	-10.8945
▁charged	-10.8951
▁teachers	-10.8954
▁Mrs	-10.8955
▁Municipal	-10.8955
▁Imp	-10.8956
some	-10.8958
▁giant	-10.8958
▁sugar	-10.896
▁bright	-10.896
▁km	-10.896
▁dozen	-10.896
phone	-10.8962
cover	-10.8963
▁honors	-10.8965
▁Lock	-10.8965
▁cold	-10.8972
▁centered	-10.8976
▁Montgomery	-10.8979
▁somewhat	-10.8979
▁Ker	-10.8979
▁discontinued	-10.8985
▁behalf	-10.8986
stown	-10.8987
▁sponsor	-10.899
▁Bun	-10.899
rey	-10.8991
BL	-10.8996
▁51	-10.8996
▁qualification	-10.8999
▁playwright	-10.9
▁outer	-10.9001
▁capture	-10.9002
▁Kon	-10.9006
oe	-10.9006
▁Railways	-10.9011
▁tried	-10.9011
▁Hugh	-10.9017
▁1980.	-10.9017
▁oversee	-10.9019
▁ATP	-10.9019
▁Recording	-10.9024
▁Was	-10.9028
uv	-10.9036
▁Kid	-10.9036
▁worship	-10.904
▁nor	-10.904
▁Gran	-10.904
ipe	-10.9041
▁nickname	-10.9043
its	-10.9043
▁Lei	-10.9044
▁Shore	-10.9047
▁seed	-10.9051
▁Confederate	-10.9061
▁encourage	-10.9063
▁Woman	-10.9067
▁1870	-10.9068
▁Dra	-10.9068
rog	-10.9068
▁Kingston	-10.9075
▁tip	-10.9076
▁characteristics	-10.9076
▁let	-10.9079
▁Sean	-10.9081
▁alcohol	-10.9081
▁crowd	-10.9081
▁sprint	-10.9082
▁stages	-10.9083
tron	-10.9084
▁Harold	-10.9086
▁Fish	-10.9089
nit	-10.9093
▁Fen	-10.9095
▁Fine	-10.9098
▁holiday	-10.9102
▁Abbey	-10.9102
▁earning	-10.9102
▁disorder	-10.9102
▁challenge	-10.9103
rink	-10.9103
▁uniform	-10.9104
raj	-10.9104
▁1905	-10.9105
▁Mars	-10.9107
▁extremely	-10.9114
▁colleges	-10.9115
col	-10.9117
▁Tigers	-10.912
▁Intelligence	-10.9122
▁ministry	-10.9122
▁felt	-10.9123
▁resides	-10.9124
▁measures	-10.9124
▁carrying	-10.9126
▁killing	-10.9127
lab	-10.9127
▁Color	-10.9131
wel	-10.9132
▁Tel	-10.9136
▁manner	-10.9136
▁significantly	-10.9143
▁Mali	-10.9143
▁54	-10.9144
▁1973.	-10.9148
82	-10.915
▁collective	-10.9154
▁Lea	-10.9158
▁Tracks	-10.916
▁Newfoundland	-10.9164
▁artificial	-10.9164
action	-10.9167
dell	-10.9167
▁1901	-10.9168
▁Ul	-10.9171
tage	-10.9173
AFL	-10.9173
▁conservative	-10.9185
▁Capitol	-10.9185
▁Gujarat	-10.9185
▁Circle	-10.9185
iga	-10.9186
▁employment	-10.9187
▁180	-10.9192
▁SS	-10.9193
anta	-10.9195
range	-10.9196
▁interviews	-10.9199
group	-10.9201
ake	-10.9201
▁fort	-10.9201
▁roads	-10.9202
blo	-10.9202
vision	-10.9203
▁touch	-10.9205
▁Ecuador	-10.9205
▁Krishna	-10.9205
▁academy	-10.9205
▁rescue	-10.9206
▁sword	-10.9207
breathing	-10.9215
wall	-10.9217
▁mollusks	-10.9222
▁Mine	-10.9222
▁frequency	-10.9226
▁Technical	-10.9226
▁AC	-10.9229
▁Butler	-10.923
▁ray	-10.9231
oidea	-10.9232
CL	-10.9232
▁newspapers	-10.9232
▁economics	-10.9233
▁observ	-10.9234
▁graphics	-10.9237
stock	-10.9239
fur	-10.9239
▁rot	-10.924
▁relationships	-10.9241
▁holder	-10.9245
▁passes	-10.9246
▁opportunities	-10.9247
▁prince	-10.9247
Di	-10.9247
▁solution	-10.9251
▁construct	-10.9259
▁Uni	-10.9259
▁owns	-10.9262
▁convert	-10.9263
▁solutions	-10.9266
▁painted	-10.9267
▁agriculture	-10.9268
atic	-10.9268
ancy	-10.927
▁answer	-10.9271
odor	-10.9272
▁Tampa	-10.9272
founded	-10.9273
▁Luke	-10.9274
▁Mit	-10.9274
▁constitution	-10.9274
▁Chapel	-10.9277
aro	-10.9277
▁Coll	-10.9277
▁Stars	-10.928
from	-10.9281
▁Justin	-10.9281
▁officials	-10.9282
▁rivers	-10.9283
▁Math	-10.9284
who	-10.9286
▁powers	-10.9286
▁controversy	-10.9289
▁bottom	-10.9289
▁Hat	-10.929
▁participants	-10.929
▁links	-10.9291
atory	-10.9294
cord	-10.9296
ops	-10.9301
▁costs	-10.9306
Ho	-10.9307
▁1977.	-10.9309
▁Bulbophyllum	-10.931
▁comprising	-10.931
▁Cher	-10.9311
▁handball	-10.9312
▁Eight	-10.9314
▁segment	-10.9314
▁magazines	-10.9317
▁editions	-10.932
▁athletics	-10.9323
world	-10.9324
▁begins	-10.9327
▁ticket	-10.9331
▁plastic	-10.9331
▁faith	-10.9332
▁Kas	-10.9334
▁neo	-10.9335
▁Once	-10.9335
▁Vale	-10.9337
▁delivered	-10.9341
▁Gas	-10.9345
seat	-10.9347
lang	-10.9347
▁fi	-10.9347
▁ST	-10.9348
lac	-10.935
▁automobile	-10.9353
▁buried	-10.9353
made	-10.9353
▁knight	-10.9353
▁Pun	-10.9356
icus	-10.9358
Li	-10.9363
▁root	-10.9364
▁constitutional	-10.9368
▁expressed	-10.9368
▁Def	-10.9369
▁Ukrainian	-10.9374
▁filled	-10.9374
▁Bollywood	-10.9375
tory	-10.9376
▁1902	-10.9376
▁About	-10.9377
▁Bobby	-10.9378
EM	-10.9382
▁praised	-10.9385
para	-10.9386
▁comment	-10.9391
▁Crow	-10.9391
▁acquisition	-10.9395
▁cloud	-10.9395
▁Collection	-10.9397
pes	-10.94
break	-10.9401
▁tenure	-10.9401
▁dual	-10.9402
▁Democrats	-10.9403
cross	-10.9407
▁Net	-10.9416
▁opportunity	-10.9416
▁fungus	-10.9416
hil	-10.942
▁Owen	-10.9422
▁patient	-10.9424
▁Sex	-10.9426
▁acclaim	-10.9431
crea	-10.9431
▁Through	-10.9437
▁Flor	-10.9437
▁Cornwall	-10.9438
▁threatened	-10.9438
▁queen	-10.9438
▁Twenty	-10.9438
▁Scr	-10.9438
▁Much	-10.944
▁Coach	-10.944
▁herself	-10.9444
▁Just	-10.9445
kha	-10.9445
rina	-10.9445
▁unlike	-10.9446
▁landing	-10.9448
▁partially	-10.9449
▁hour	-10.945
Con	-10.9452
▁Hen	-10.9452
▁Player	-10.9454
▁extent	-10.9459
▁desert	-10.9459
▁criticism	-10.9462
▁commentator	-10.9462
fon	-10.9463
▁assumed	-10.9466
▁apartment	-10.9466
▁wish	-10.9467
dder	-10.9467
▁agreed	-10.9468
▁den	-10.9468
corn	-10.9472
drama	-10.9472
▁showing	-10.9473
▁pla	-10.9474
Ne	-10.9475
▁substance	-10.948
▁deputy	-10.948
▁Ralph	-10.948
▁copy	-10.9486
▁fur	-10.9488
assi	-10.9491
▁files	-10.9497
vit	-10.9498
ically	-10.95
▁surgery	-10.9502
▁resort	-10.9502
▁fresh	-10.9502
▁1903	-10.9505
Ha	-10.9507
▁Bath	-10.9509
▁Holland	-10.951
▁Get	-10.951
▁Wor	-10.9513
▁fee	-10.9515
▁papers	-10.9516
vation	-10.9521
▁et	-10.9523
▁Liberty	-10.9524
▁calls	-10.9527
acher	-10.9529
▁hat	-10.953
▁convicted	-10.9531
▁Vas	-10.954
sten	-10.9541
▁Mills	-10.9542
▁remake	-10.9545
▁balance	-10.9546
▁locomotives	-10.9547
▁Cow	-10.9549
▁switch	-10.9549
▁Rain	-10.9551
▁mind	-10.9552
▁depict	-10.9555
rest	-10.9555
▁Rush	-10.9556
▁Bud	-10.9558
▁plain	-10.9563
▁emb	-10.9565
▁Raja	-10.9566
▁proposal	-10.9566
▁statue	-10.9567
rol	-10.9569
uring	-10.9571
lob	-10.9579
▁Kor	-10.9581
ink	-10.9585
▁Dol	-10.9587
▁Battalion	-10.9588
▁Tortricidae	-10.9588
▁accredited	-10.9588
▁invasion	-10.9588
▁Critics	-10.9588
▁gone	-10.959
▁Voice	-10.959
▁qua	-10.96
went	-10.9601
▁Cent	-10.9605
▁moment	-10.9607
▁transit	-10.9608
▁error	-10.961
▁membrane	-10.961
▁structural	-10.961
▁Seoul	-10.961
▁Namibia	-10.961
▁monotypic	-10.961
▁Store	-10.9612
▁Lou	-10.9616
cli	-10.9617
▁scar	-10.9619
▁infect	-10.9619
▁mechanism	-10.9622
vu	-10.9628
▁Winnipeg	-10.9632
▁opponent	-10.9632
▁sweet	-10.9632
▁Universe	-10.9632
acle	-10.9632
▁coalition	-10.9632
▁notes	-10.9632
▁Fiction	-10.9633
ania	-10.9634
▁vary	-10.9638
▁grave	-10.9643
▁nationally	-10.9645
ried	-10.9649
acre	-10.9652
GA	-10.9652
▁Cameron	-10.9653
▁IT	-10.9653
▁changing	-10.9653
▁Culture	-10.9654
▁venues	-10.9655
▁Fleet	-10.9656
▁secretary	-10.9657
▁doubles	-10.9657
SM	-10.9658
▁archive	-10.9659
smith	-10.9662
osi	-10.9663
quit	-10.9665
▁Shaw	-10.9667
vil	-10.9668
▁Twin	-10.9668
▁Cul	-10.9671
▁hybrid	-10.9675
▁participation	-10.9675
▁Raymond	-10.9676
▁stress	-10.9679
▁ear	-10.9679
▁Chan	-10.9679
▁IBM	-10.9679
MLB	-10.9683
▁extreme	-10.9684
▁Train	-10.9685
▁53	-10.9687
▁concerned	-10.9688
For	-10.9696
▁subtropical	-10.9697
▁committed	-10.9698
▁Angola	-10.9699
▁outstanding	-10.97
tty	-10.9703
WA	-10.9708
▁improvement	-10.9711
eff	-10.9714
vari	-10.9716
▁Bolivia	-10.9719
▁Santo	-10.9723
▁youngest	-10.9727
astic	-10.9727
▁Croatia	-10.9731
▁Pul	-10.9732
phr	-10.9734
▁paintings	-10.9736
oi	-10.9736
▁payment	-10.9741
▁resistance	-10.9742
▁Week	-10.9746
▁Juan	-10.9747
▁ke	-10.9749
▁topped	-10.975
▁Panama	-10.9751
▁PhD	-10.9755
minute	-10.9761
▁attempted	-10.9761
▁diseases	-10.9761
▁1971.	-10.9762
▁Statistical	-10.9763
▁congressional	-10.9763
anth	-10.9764
▁restaurants	-10.9764
▁credits	-10.9765
-16	-10.9765
▁Herbert	-10.9767
NZ	-10.9772
odont	-10.9773
▁drink	-10.9775
▁warm	-10.9775
sim	-10.9778
▁bell	-10.9779
▁Vir	-10.9783
▁Shadow	-10.9785
▁smooth	-10.9785
▁false	-10.9786
▁visitors	-10.9786
▁1989,	-10.9789
▁tie	-10.9789
▁Pha	-10.979
som	-10.9793
raw	-10.9794
▁Kay	-10.9795
FI	-10.9795
▁scholars	-10.9797
2)	-10.98
uba	-10.98
▁showed	-10.9807
▁Cemetery	-10.9807
▁Shu	-10.9809
▁experienced	-10.9809
▁clay	-10.9811
▁shut	-10.9811
▁Hit	-10.9812
roll	-10.9814
udi	-10.9815
▁looking	-10.9815
cop	-10.9817
ered	-10.9818
amine	-10.982
▁fit	-10.982
lived	-10.9825
▁Yale	-10.9829
▁ruling	-10.9829
▁Wellington	-10.983
▁Gregory	-10.983
▁connecting	-10.9833
▁Kir	-10.9838
bli	-10.984
▁Flight	-10.9841
▁depending	-10.9844
▁Alice	-10.9845
▁Sara	-10.9849
▁Legislature	-10.9852
▁algorithm	-10.9852
▁elevation	-10.9852
▁Wonder	-10.9852
lash	-10.986
une	-10.9862
▁possess	-10.9866
▁Plu	-10.9871
▁window	-10.9872
sted	-10.9874
▁Thunder	-10.9875
▁origins	-10.9875
▁resemble	-10.9876
▁sentence	-10.9881
▁800	-10.9884
▁Pont	-10.9886
mur	-10.9887
cious	-10.9888
▁trying	-10.9888
▁pu	-10.989
pell	-10.989
League	-10.9892
▁yards	-10.9893
ending	-10.9895
▁hired	-10.9898
▁Rid	-10.9898
▁acted	-10.99
yam	-10.9906
▁moderate	-10.9906
▁handle	-10.9906
▁hydro	-10.9912
▁writes	-10.9913
▁woodland	-10.9913
▁locomotive	-10.9916
rack	-10.9916
▁homes	-10.9917
naut	-10.9918
▁Cabinet	-10.9919
▁strategic	-10.9919
▁Sweet	-10.9919
▁Gabriel	-10.9919
▁ranks	-10.9919
ache	-10.9923
▁rooms	-10.9924
▁stable	-10.9924
▁duty	-10.9924
ccompanied	-10.9925
▁Well	-10.9927
▁option	-10.9928
▁vision	-10.993
▁plane	-10.9931
ipp	-10.9932
▁Tree	-10.9936
▁facilitate	-10.9937
▁trio	-10.9938
▁benefits	-10.9939
▁Guide	-10.9939
▁Financial	-10.9941
▁Harvey	-10.9942
▁Finance	-10.9943
▁windows	-10.9945
avan	-10.9946
sport	-10.9946
omer	-10.9947
▁thirteen	-10.9949
▁improved	-10.9952
hap	-10.9952
▁lands	-10.9956
VA	-10.9957
▁rat	-10.9957
▁airs	-10.9962
▁archeological	-10.9963
▁contributor	-10.9963
▁ruin	-10.9964
▁machines	-10.9965
▁blog	-10.9967
inter	-10.9968
▁preserved	-10.9971
▁Highland	-10.9978
▁Bour	-10.9982
▁administrator	-10.9986
▁Aero	-10.9986
▁milk	-10.9987
▁Travel	-10.9987
81	-10.9988
▁scientists	-10.999
dian	-10.9993
▁seek	-10.9996
▁Bert	-11
EL	-11
▁insects	-11.0001
▁restricted	-11.0003
rix	-11.0003
▁drum	-11.001
▁stamp	-11.0011
thal	-11.0016
ova	-11.0017
▁1986,	-11.0017
▁fluid	-11.0018
IR	-11.002
word	-11.0023
▁crown	-11.0026
power	-11.0026
▁delivery	-11.0027
dorf	-11.0028
▁Note	-11.0029
▁Kannada	-11.0031
▁cousin	-11.0031
▁injured	-11.0031
▁researchers	-11.0033
▁Leon	-11.0033
▁Sultan	-11.0034
feld	-11.0034
▁Dom	-11.0036
▁(2	-11.004
▁profile	-11.0041
▁Fat	-11.0041
new	-11.0042
▁deals	-11.0043
DF	-11.0049
▁Bee	-11.0051
▁deter	-11.0052
▁encounter	-11.0054
▁Ancient	-11.0054
▁Por	-11.006
▁nonprofit	-11.0062
▁prepared	-11.0064
▁Julie	-11.0065
▁Geo	-11.0065
▁Bond	-11.0065
▁crash	-11.0071
▁referendum	-11.0077
▁gift	-11.0077
▁client	-11.0078
▁Walk	-11.008
▁Sca	-11.0082
▁Wel	-11.0083
▁boot	-11.0085
▁Pel	-11.0085
▁minority	-11.0087
6.	-11.0093
Pro	-11.0093
Italian	-11.0097
▁gate	-11.0098
▁computing	-11.0099
▁Turkish	-11.01
▁Shan	-11.0101
▁Mind	-11.0101
▁movements	-11.0106
gno	-11.011
▁pathogen	-11.0118
▁arrested	-11.0119
▁dynasty	-11.0122
▁awareness	-11.0122
mbr	-11.0123
▁evolved	-11.0126
▁1896	-11.0126
▁encompasses	-11.0128
try	-11.0131
amo	-11.0132
▁customer	-11.0133
▁monitor	-11.0135
▁Fan	-11.0135
▁playoff	-11.0137
▁canal	-11.014
verse	-11.0144
▁overseas	-11.0145
▁Aviation	-11.0145
▁patron	-11.0145
▁Ronald	-11.0146
▁Actress	-11.0146
▁Future	-11.0146
iel	-11.0147
▁Colin	-11.015
▁Iranian	-11.0151
▁Om	-11.0153
▁abbreviated	-11.0153
▁Devil	-11.0154
▁VI	-11.0156
ature	-11.0166
▁column	-11.0167
▁refuge	-11.0168
▁Number	-11.0168
▁treated	-11.0168
▁connects	-11.0174
▁Come	-11.0177
▁Bang	-11.018
▁Rapid	-11.0185
aging	-11.0185
-0	-11.019
▁console	-11.0191
▁Giants	-11.0192
mbu	-11.0193
▁1894	-11.0196
▁belt	-11.0197
▁acclaimed	-11.0199
▁unable	-11.0201
▁cash	-11.0202
▁Newport	-11.0203
▁Plant	-11.0205
▁Jar	-11.0211
▁charges	-11.0212
▁Lebanon	-11.0214
▁ir	-11.0214
▁liberal	-11.0214
▁Bavaria	-11.0215
▁aviation	-11.0215
▁Beau	-11.0216
ilo	-11.0218
▁capable	-11.0219
▁Danny	-11.022
ckle	-11.0223
▁Lac	-11.0225
pta	-11.0225
▁remix	-11.0225
▁viewed	-11.0225
▁entering	-11.0229
On	-11.0235
▁dissolved	-11.0237
▁kingdom	-11.0238
ffe	-11.0241
▁tale	-11.0246
▁Ton	-11.0247
▁Greatest	-11.0248
▁appropriate	-11.025
▁Lyn	-11.0253
pm	-11.0257
▁looked	-11.0258
▁Arctiinae	-11.026
▁memorial	-11.026
▁respond	-11.026
▁temporary	-11.026
▁differ	-11.0263
▁terminus	-11.0264
▁considerable	-11.0264
▁Mess	-11.0269
org	-11.0275
▁bin	-11.0276
▁Presbyterian	-11.0283
▁mystery	-11.0283
▁Downtown	-11.0286
▁Rural	-11.0289
pis	-11.029
▁rates	-11.0292
▁exclusive	-11.0294
iness	-11.0294
▁Tag	-11.0295
▁pink	-11.0296
▁shift	-11.0302
▁Editor	-11.0307
▁mixture	-11.0308
▁huge	-11.0308
▁Fil	-11.0311
▁apart	-11.0313
hon	-11.0314
▁soldier	-11.0322
▁drop	-11.0326
cycl	-11.0326
mph	-11.0327
▁Emperor	-11.033
fall	-11.0333
▁Andrea	-11.0334
▁bad	-11.0334
▁Burma	-11.0337
▁contribution	-11.0338
▁attract	-11.034
▁Tiger	-11.034
▁formula	-11.0342
▁tours	-11.0344
▁Eagle	-11.0346
▁Leo	-11.0348
▁platinum	-11.0353
▁Canterbury	-11.0353
▁sons	-11.0356
shaw	-11.0361
▁Broad	-11.0362
▁leads	-11.0362
kumar	-11.0366
▁chose	-11.0369
▁honored	-11.037
nish	-11.0371
specific	-11.0374
xa	-11.0375
▁discography	-11.0377
logy	-11.0377
▁suburbs	-11.0378
▁Fle	-11.038
▁ends	-11.0384
track	-11.0386
1,	-11.0387
lent	-11.0391
▁chemistry	-11.0399
▁Suffolk	-11.04
▁Oscar	-11.0401
ld	-11.0404
▁1984,	-11.0404
▁hundreds	-11.0407
▁Bart	-11.0407
▁comics	-11.0411
▁LGBT	-11.0414
▁pit	-11.0417
MD	-11.0422
▁constellation	-11.0424
▁sharing	-11.0424
▁sensor	-11.0424
▁premiership	-11.0425
▁carries	-11.043
arth	-11.0431
▁tests	-11.0433
scope	-11.0433
lift	-11.0434
▁Mani	-11.0435
▁Abu	-11.0437
▁wider	-11.0438
▁relation	-11.0442
▁Fab	-11.0443
▁Princess	-11.0445
▁Block	-11.0447
rim	-11.0447
▁Halifax	-11.0447
▁Volunteer	-11.0447
▁concrete	-11.0447
▁prohibit	-11.0447
▁beauty	-11.0447
▁constant	-11.0447
USA	-11.0448
▁Record	-11.0448
▁input	-11.0452
▁Price	-11.0454
▁Bet	-11.0454
▁Krist	-11.0457
▁Anth	-11.0469
▁evolution	-11.0469
▁Vienna	-11.0471
▁intermediate	-11.0471
▁dream	-11.0471
▁aquatic	-11.0471
▁worn	-11.0472
urge	-11.0473
▁Baronetage	-11.0474
NP	-11.0476
▁principles	-11.0476
▁tro	-11.0478
▁Staff	-11.0483
▁proved	-11.0484
▁Original	-11.0491
▁spirit	-11.0494
▁Lost	-11.0494
eria	-11.0494
▁Private	-11.0495
▁territories	-11.0495
▁Hungary	-11.0495
▁Blake	-11.0495
hab	-11.0495
▁performs	-11.0496
phor	-11.0498
▁Teen	-11.0498
▁evening	-11.0499
NO	-11.05
▁Temp	-11.0501
▁Hour	-11.0503
▁noise	-11.0505
▁Reform	-11.0506
▁Stein	-11.0506
TP	-11.0508
direct	-11.0509
▁Estate	-11.0515
▁effectively	-11.0516
▁Protection	-11.0518
▁Shri	-11.0522
▁hosting	-11.0525
flower	-11.0525
▁Sym	-11.0528
▁Edwards	-11.0529
▁volunteer	-11.0531
▁Admiral	-11.0542
▁Memphis	-11.0542
▁circle	-11.0542
▁gallery	-11.0543
▁tr	-11.0544
▁Joint	-11.0545
▁ongoing	-11.0545
▁cult	-11.0546
▁Rao	-11.0548
400	-11.0556
organ	-11.0558
gio	-11.0562
valu	-11.0563
iah	-11.0566
▁saxophonist	-11.0566
▁practical	-11.0566
▁cycling	-11.0566
cade	-11.0567
cephal	-11.0567
▁invited	-11.0567
▁Marco	-11.0571
▁decline	-11.0572
▁massive	-11.0572
gni	-11.0575
cycle	-11.0576
▁Students	-11.0577
▁Kur	-11.0577
▁starts	-11.058
▁publicly	-11.0581
▁Vis	-11.0582
sbury	-11.0586
▁tier	-11.0588
▁Colonel	-11.059
▁Agriculture	-11.059
▁missile	-11.059
▁narrative	-11.0591
▁Eddie	-11.0591
▁spelled	-11.0594
▁Ellis	-11.0595
▁falls	-11.0597
▁alleged	-11.0597
▁Break	-11.06
▁bee	-11.06
wise	-11.0601
nor	-11.0603
▁Lankan	-11.0604
▁qualify	-11.0605
▁partners	-11.0613
▁Initially	-11.0614
▁portrait	-11.0614
▁Speaker	-11.0614
▁Spi	-11.0615
▁naming	-11.0615
▁resignation	-11.0616
▁1969.	-11.0618
▁passage	-11.0619
▁Thus	-11.062
AB	-11.0623
hole	-11.0624
▁observation	-11.0627
▁Cry	-11.0627
▁extends	-11.0628
▁die	-11.0628
▁none	-11.0629
▁Cru	-11.0637
yle	-11.0638
▁servant	-11.0638
▁visited	-11.0642
▁EC	-11.0644
▁lap	-11.0645
▁continent	-11.0646
▁implemented	-11.0648
quest	-11.0653
iri	-11.0654
RNA	-11.0659
wy	-11.0659
▁automatic	-11.0661
▁asteroid	-11.0662
▁crisis	-11.0663
▁1945)	-11.0663
ook	-11.0665
rrington	-11.0669
▁lineup	-11.0671
force	-11.0676
▁questions	-11.0677
▁Indo	-11.068
free	-11.0683
lation	-11.0685
RM	-11.0686
▁Boulevard	-11.0686
▁Muhammad	-11.0686
▁protagonist	-11.0686
▁rifle	-11.0686
▁sleep	-11.0686
▁analyze	-11.0686
▁10,000	-11.0687
▁vertical	-11.0687
▁Progressive	-11.0687
▁Speedway	-11.0687
▁proper	-11.0692
▁missions	-11.0693
hart	-11.0694
▁functional	-11.0697
▁inventor	-11.0697
▁canton	-11.0699
▁Gon	-11.07
comp	-11.07
▁emerged	-11.07
▁mountains	-11.0703
▁Economics	-11.0704
rite	-11.0705
▁raid	-11.0706
▁distinguish	-11.0706
▁Ted	-11.0707
▁ill	-11.071
▁universe	-11.0711
▁crystal	-11.0711
▁Complex	-11.0711
▁Indies	-11.0712
exclud	-11.0713
-21	-11.0713
▁essential	-11.0722
▁environments	-11.0722
▁Queens	-11.0726
▁Renaissance	-11.0735
▁Columbus	-11.0736
sometimes	-11.0737
▁contribute	-11.0742
jar	-11.0743
▁meta	-11.0745
▁Corner	-11.0745
▁Cuba	-11.0747
itude	-11.0748
▁clan	-11.0749
▁Delta	-11.0749
▁whereas	-11.075
MG	-11.0754
▁Phillips	-11.0756
▁1944)	-11.0758
▁spell	-11.0759
corporat	-11.0759
▁Carol	-11.0759
▁continuing	-11.0759
▁journey	-11.0759
▁releasing	-11.0759
▁ghost	-11.076
acy	-11.0762
▁triple	-11.0762
▁cho	-11.0764
▁Ship	-11.0768
▁Todd	-11.0776
▁bowler	-11.0778
▁chapter	-11.0779
▁Mala	-11.0779
cil	-11.0779
▁basin	-11.0779
▁sung	-11.0781
self	-11.0783
▁Operations	-11.0783
▁bachelor	-11.0784
▁iTunes	-11.0784
▁retiring	-11.0784
▁devoted	-11.0788
▁Gilbert	-11.0792
▁Met	-11.0793
dig	-11.0793
▁Friends	-11.0794
ector	-11.08
rik	-11.0803
▁corn	-11.0803
▁partly	-11.0806
▁Josh	-11.0807
▁Political	-11.0808
▁Android	-11.0808
▁involvement	-11.081
▁agents	-11.0811
▁Talk	-11.0812
week	-11.0816
2,	-11.082
▁expand	-11.082
aged	-11.0822
▁Shin	-11.0822
▁distinction	-11.0823
▁pub	-11.0826
▁Thing	-11.0829
▁colon	-11.083
qual	-11.0831
▁clients	-11.0831
oxy	-11.0832
▁romance	-11.0833
▁disaster	-11.0833
▁meat	-11.0833
▁summit	-11.0833
▁bicycle	-11.0833
▁Gam	-11.0833
rma	-11.0836
ulf	-11.0838
▁performer	-11.0841
▁pal	-11.0846
▁dated	-11.0849
▁pipe	-11.0849
▁portal	-11.0849
▁sheet	-11.0851
fre	-11.0851
▁Kara	-11.0853
▁recommend	-11.0853
▁gross	-11.0855
▁reservoir	-11.0857
▁bounded	-11.0857
▁Ahmed	-11.0857
▁Bosnia	-11.0857
▁accessible	-11.0861
▁celebration	-11.0861
uka	-11.0861
▁250	-11.0865
▁governed	-11.0869
▁helping	-11.087
▁Oil	-11.0872
hur	-11.0872
▁lecture	-11.0873
tree	-11.0873
My	-11.0874
ander	-11.0875
▁dramatic	-11.0879
▁Westminster	-11.0882
▁minimum	-11.0882
▁undergo	-11.0882
▁organize	-11.0887
▁PGA	-11.0887
▁studying	-11.0888
▁storm	-11.0889
▁reissued	-11.0891
▁homo	-11.0891
▁finals	-11.0892
▁Chad	-11.0892
rot	-11.0892
▁continuous	-11.0894
oke	-11.0894
▁portray	-11.0894
LD	-11.0896
▁Serbia	-11.0897
coming	-11.0898
▁defunct	-11.0898
▁op	-11.0902
▁Ok	-11.0903
▁(17	-11.0903
▁thousand	-11.0905
▁Zu	-11.0905
▁medalist	-11.0905
▁Protestant	-11.0906
▁Symphony	-11.0906
▁Gothic	-11.0906
▁Hits	-11.0907
▁Kenneth	-11.0907
▁partial	-11.0907
round	-11.0907
MT	-11.0909
▁Bomb	-11.091
▁Yemen	-11.091
NE	-11.0915
▁symptoms	-11.0919
cta	-11.092
▁lip	-11.092
anna	-11.0921
▁kit	-11.0923
▁feel	-11.0924
▁hope	-11.0925
▁Ble	-11.0926
▁Trinidad	-11.0931
▁Next	-11.0932
▁taluk	-11.0932
▁Primary	-11.0933
▁Rovers	-11.0935
GP	-11.0938
▁loop	-11.0938
lov	-11.094
▁reporting	-11.0941
rise	-11.0941
▁picked	-11.0942
RP	-11.0942
▁Brent	-11.0942
chel	-11.0942
▁Thor	-11.0945
▁Newton	-11.0947
grant	-11.0949
ides	-11.0949
lat	-11.0955
standing	-11.0955
▁Spencer	-11.0956
▁closing	-11.0956
▁occurring	-11.0958
▁tight	-11.0959
scribed	-11.0962
pter	-11.0964
▁Hil	-11.0966
▁relocated	-11.0967
▁manage	-11.0967
▁moral	-11.0968
▁Kh	-11.0968
▁Mari	-11.097
hwa	-11.0975
▁stick	-11.0975
clar	-11.0977
▁Basin	-11.0979
▁Minneapolis	-11.0981
bru	-11.0985
▁Nas	-11.0986
lag	-11.0986
▁Baby	-11.0987
mount	-11.0987
▁commercially	-11.0989
▁1860	-11.099
▁Hughes	-11.0993
rain	-11.0993
▁enjoy	-11.1003
▁survived	-11.1004
▁matters	-11.1005
▁perspective	-11.1006
▁Simpson	-11.1006
▁Animal	-11.1006
▁Desert	-11.1007
▁Wallace	-11.1007
▁Venice	-11.1008
dem	-11.101
▁Father	-11.1011
▁1892	-11.1011
▁66	-11.1015
elo	-11.1016
▁therapy	-11.1021
▁1997)	-11.1021
▁secure	-11.1023
▁Rosa	-11.1024
▁traded	-11.103
▁intellectual	-11.1031
▁Cambodia	-11.1031
▁Laboratory	-11.1032
last	-11.1032
▁Production	-11.1032
▁scholarship	-11.1032
▁invented	-11.1032
yp	-11.1033
▁simultaneously	-11.1034
uta	-11.1035
ital	-11.1035
▁Days	-11.1039
▁accounts	-11.1041
▁Sum	-11.1043
▁Schu	-11.1044
▁Pseudo	-11.1044
▁provinces	-11.1046
▁reverse	-11.1046
▁Environmental	-11.1048
▁Hop	-11.105
▁tag	-11.1053
his	-11.1053
▁Mau	-11.1054
▁CO	-11.1054
▁Monroe	-11.1056
▁Cardiff	-11.1056
▁Mobile	-11.1057
▁variant	-11.1058
▁Malay	-11.1058
sexual	-11.106
brand	-11.1063
▁Workers	-11.1063
▁Cave	-11.1063
icular	-11.1064
weed	-11.1065
CM	-11.1065
▁Word	-11.1065
▁Wars	-11.1066
▁Allan	-11.1068
▁Higher	-11.1069
▁PA	-11.1072
▁pages	-11.1073
pac	-11.1074
▁traveling	-11.1075
▁Cultural	-11.1081
▁Thoroughbred	-11.1081
▁Together	-11.1081
▁Sad	-11.1081
▁psychological	-11.1081
▁Gerald	-11.1082
▁Epi	-11.1087
bass	-11.1087
tiv	-11.1088
▁Raven	-11.1088
Car	-11.1089
▁escape	-11.109
vie	-11.109
▁decide	-11.109
▁ISO	-11.1092
▁storyline	-11.1095
TR	-11.1097
NI	-11.1097
▁rapidly	-11.1098
cate	-11.1099
▁someone	-11.11
▁Forum	-11.11
▁Clare	-11.1101
▁contestant	-11.1103
rob	-11.1103
▁Watson	-11.1106
▁nerve	-11.1107
pent	-11.1108
isco	-11.1109
▁dominated	-11.1111
▁diplomatic	-11.1118
▁sciences	-11.1121
▁streets	-11.1122
scape	-11.1125
vir	-11.1127
▁Bryan	-11.1128
▁600	-11.113
▁Ara	-11.113
▁Chase	-11.1131
▁counsel	-11.1131
▁tumor	-11.1132
▁Florence	-11.1133
▁municipalities	-11.1133
▁diplomat	-11.1134
▁View	-11.1134
▁waste	-11.1141
oba	-11.1143
▁patterns	-11.1148
woman	-11.1148
zan	-11.115
▁Deb	-11.1152
four	-11.1152
▁rating	-11.1153
▁reputation	-11.1157
▁attributed	-11.1157
▁Jews	-11.1157
▁completion	-11.1159
▁Foster	-11.116
vet	-11.1161
▁difference	-11.1162
sworth	-11.1162
▁1943)	-11.1163
▁pursue	-11.1164
▁Burg	-11.1165
▁CE	-11.1166
psy	-11.1167
post	-11.1168
▁illustrated	-11.1169
bid	-11.1173
OL	-11.1174
▁mat	-11.1175
▁generated	-11.1177
▁geographical	-11.118
metric	-11.1182
▁Independence	-11.1182
▁concentration	-11.1182
▁superhero	-11.1182
▁array	-11.1183
▁NASA	-11.1183
▁Brit	-11.1184
ault	-11.1184
▁message	-11.1187
▁1898	-11.1187
▁procedure	-11.1187
▁1885	-11.1187
▁Multi	-11.1191
nti	-11.1192
▁Syria	-11.1192
▁Bin	-11.1193
▁psycho	-11.1195
▁Lyon	-11.1196
beat	-11.1197
pound	-11.1198
▁Palmer	-11.1203
▁Chal	-11.1205
▁tram	-11.1206
▁Commerce	-11.1208
▁Principal	-11.1208
▁accused	-11.1208
▁emphasis	-11.1208
▁expedition	-11.1208
▁supposed	-11.1208
▁Amateur	-11.1208
▁Wildlife	-11.1208
▁particle	-11.1208
writer	-11.1209
▁linguistic	-11.1209
bow	-11.1211
▁Recordings	-11.1212
▁codes	-11.1213
▁1,000	-11.1213
▁trend	-11.1213
▁reception	-11.1213
mile	-11.1215
▁didn	-11.1215
▁characteristic	-11.1219
running	-11.1222
▁cook	-11.1222
▁limits	-11.1223
▁predict	-11.1223
pil	-11.1225
▁traditions	-11.1228
pit	-11.1229
color	-11.1233
▁supplies	-11.1233
▁nurse	-11.1233
OP	-11.1234
▁Continental	-11.1234
DI	-11.1235
▁enjoyed	-11.1236
▁Morning	-11.1237
▁clock	-11.124
▁tune	-11.124
▁preserve	-11.1242
▁loosely	-11.1243
▁Lau	-11.1245
▁Advanced	-11.1246
rell	-11.1252
5.	-11.1254
rav	-11.1254
inda	-11.1256
▁preparation	-11.1259
▁significance	-11.1259
▁decrease	-11.1259
▁Belfast	-11.1259
▁suggests	-11.1259
▁snout	-11.1259
▁originat	-11.126
▁electricity	-11.1266
▁Preston	-11.1266
▁directors	-11.1267
1)	-11.1268
▁Rag	-11.1271
▁immediate	-11.1271
▁detail	-11.1272
bian	-11.1274
▁Blu	-11.1274
▁conductor	-11.1275
▁productions	-11.1276
▁presents	-11.1276
▁Romanian	-11.1278
▁wings	-11.1278
▁backing	-11.1279
▁Cash	-11.128
▁supplement	-11.1284
▁phenomenon	-11.1284
▁dubbed	-11.1284
▁mor	-11.1285
ulated	-11.1285
two	-11.1286
▁beside	-11.1286
▁townships	-11.1287
▁BA	-11.1288
stig	-11.1288
▁footage	-11.129
▁Planet	-11.1293
▁Own	-11.1294
lex	-11.1296
ching	-11.1297
▁1968.	-11.1298
azi	-11.1299
▁cow	-11.1302
voc	-11.1306
▁pitch	-11.1307
▁Arabia	-11.1307
▁certification	-11.131
▁Monument	-11.131
mul	-11.131
▁missing	-11.1313
▁Peak	-11.1315
▁pack	-11.1316
▁estimate	-11.1318
▁Kol	-11.1322
▁RCA	-11.1327
▁Pick	-11.1329
avy	-11.133
▁Mam	-11.133
uter	-11.1331
▁Kazakhstan	-11.1336
▁battalion	-11.1336
▁enemy	-11.1336
▁identical	-11.1336
▁hyper	-11.1336
▁Levi	-11.1339
wich	-11.1339
▁wet	-11.1339
ledge	-11.1341
inch	-11.1344
PO	-11.1345
▁Edge	-11.1351
▁neck	-11.1353
▁regulations	-11.1354
▁climb	-11.1355
▁representatives	-11.1355
▁Colonial	-11.1362
▁Yellow	-11.1362
▁sponsorship	-11.1363
▁tied	-11.1364
▁1888	-11.1367
▁AS	-11.1368
▁synth	-11.1369
▁periods	-11.1369
▁Neu	-11.1372
▁interaction	-11.1377
▁coaching	-11.1378
SF	-11.138
nick	-11.1381
▁Reed	-11.1382
kara	-11.1383
▁Aberdeen	-11.1387
▁eligible	-11.1387
▁choose	-11.1388
▁Spe	-11.1388
▁Rep	-11.1388
▁knew	-11.1388
▁Eugene	-11.1388
▁Falcon	-11.1389
tier	-11.139
▁sum	-11.1392
▁legs	-11.1393
▁detailed	-11.1394
wear	-11.1395
▁Environment	-11.1395
nation	-11.1397
▁citizen	-11.1397
mpton	-11.1398
▁formats	-11.1398
lett	-11.1399
▁terminat	-11.14
▁Gardens	-11.1402
▁fourteen	-11.1404
▁Roberts	-11.1411
▁waters	-11.1413
▁advice	-11.1413
▁Too	-11.1415
▁stopped	-11.1416
▁Assam	-11.1416
▁Tun	-11.1422
tem	-11.1425
▁rim	-11.1427
TM	-11.1427
shore	-11.143
▁flavor	-11.1435
▁Kate	-11.1435
uth	-11.1436
▁libraries	-11.144
▁relevant	-11.144
▁companion	-11.144
▁easy	-11.144
▁Aaron	-11.144
▁promotional	-11.144
▁childhood	-11.1441
▁56	-11.1441
phys	-11.1441
Th	-11.1442
▁researcher	-11.1443
mini	-11.1444
BI	-11.1445
▁teaches	-11.1445
city	-11.1448
▁Mai	-11.1448
▁Type	-11.1449
plane	-11.145
▁tea	-11.1453
▁Bihar	-11.1456
▁colony	-11.1457
opa	-11.1458
TI	-11.1459
▁Clay	-11.1462
unda	-11.1462
then	-11.1464
▁examination	-11.1466
▁Celtic	-11.1468
illi	-11.1469
▁elementary	-11.1469
▁specification	-11.1469
▁pastor	-11.1471
▁Titan	-11.1473
cultural	-11.1473
▁relay	-11.148
▁y	-11.149
▁prototype	-11.1492
▁renowned	-11.1492
▁sharp	-11.1492
▁depth	-11.1492
▁transaction	-11.1492
▁begun	-11.1494
▁winger	-11.1494
▁march	-11.1494
oz	-11.1496
▁Knights	-11.1498
▁1889	-11.1498
▁examine	-11.1501
▁measurement	-11.1502
ural	-11.1502
▁Picture	-11.1506
▁Fla	-11.1509
holder	-11.1512
circ	-11.1515
▁victims	-11.1518
▁Alternative	-11.1518
▁fifty	-11.1518
▁tunnel	-11.1518
▁Rajasthan	-11.1518
▁suicide	-11.1518
tica	-11.1519
▁orange	-11.152
▁Resources	-11.1521
Best	-11.1524
▁CBC	-11.1525
▁blocks	-11.1527
logical	-11.1528
kill	-11.1528
named	-11.153
▁caps	-11.1533
▁critically	-11.1535
▁Lisa	-11.1535
▁Gau	-11.1538
▁Nik	-11.1542
▁ambassador	-11.1544
▁manuscript	-11.1544
▁simulation	-11.1544
▁fabric	-11.1544
▁Landmark	-11.1546
▁verse	-11.1548
▁Ghost	-11.1549
MO	-11.1552
▁Ell	-11.1554
▁cri	-11.1556
▁Dale	-11.1556
▁rower	-11.156
▁angle	-11.1564
UN	-11.1567
lead	-11.1568
▁Institution	-11.1571
▁Solomon	-11.1571
▁interactive	-11.1575
▁drivers	-11.1576
▁ka	-11.1576
Fi	-11.1581
▁Corn	-11.1582
▁pure	-11.1582
▁Abdul	-11.1586
▁Samoa	-11.1593
▁Drum	-11.1595
▁1964.	-11.1596
▁Within	-11.1597
trans	-11.1597
▁modeling	-11.1597
▁compiled	-11.1597
▁purple	-11.1597
▁Slo	-11.1597
▁Leslie	-11.1598
▁banking	-11.1599
▁Sci	-11.1601
▁Tak	-11.1601
▁Quin	-11.1603
▁speakers	-11.1604
tract	-11.1604
▁1942)	-11.1605
▁lecturer	-11.1607
oa	-11.1607
▁trainer	-11.1609
lian	-11.1612
▁rarely	-11.1612
▁1850	-11.1613
▁Manager	-11.1613
▁mainland	-11.1615
aker	-11.162
▁meetings	-11.162
pod	-11.1623
code	-11.1623
▁Shakespeare	-11.1624
▁breast	-11.1624
▁theoretical	-11.1624
hya	-11.1624
▁fun	-11.1624
▁anthology	-11.1624
▁Madhya	-11.1624
▁bull	-11.1625
▁Wan	-11.1629
hurst	-11.1631
▁Maur	-11.164
wyn	-11.1641
▁Trent	-11.1643
▁Wol	-11.1647
▁Kids	-11.1649
drom	-11.165
▁installment	-11.165
▁Folk	-11.1652
▁traveled	-11.1654
test	-11.1654
▁nineteenth	-11.1657
300	-11.1661
▁58	-11.1661
▁SE	-11.1664
▁faced	-11.1667
▁hang	-11.1672
▁decisions	-11.1672
▁kill	-11.1673
lecommunications	-11.1677
▁Barcelona	-11.1677
▁Jennifer	-11.1677
▁Rochester	-11.1677
▁configuration	-11.1677
▁marathon	-11.1677
▁radical	-11.1677
▁Springfield	-11.1681
▁Bradley	-11.1681
▁Chin	-11.1682
other	-11.1682
▁pole	-11.1682
▁1891	-11.1683
▁1895	-11.1683
quet	-11.1687
sham	-11.1687
▁Kun	-11.1687
▁Hir	-11.169
▁Spa	-11.1691
▁CB	-11.1695
▁Doug	-11.1695
pala	-11.1702
▁Uruguay	-11.1704
▁Written	-11.1704
▁exposure	-11.1704
▁statistics	-11.1704
▁Ernest	-11.1704
▁Than	-11.1705
lick	-11.1707
▁Tommy	-11.1707
▁1897	-11.1709
▁Mix	-11.1709
▁ago	-11.171
▁rocket	-11.1717
works	-11.1717
cock	-11.1718
▁Triple	-11.1726
court	-11.1728
▁57	-11.1728
▁understand	-11.173
bourne	-11.173
▁Chennai	-11.1731
▁comparison	-11.1731
▁pupils	-11.1731
▁elsewhere	-11.1731
▁imprint	-11.1731
▁por	-11.1731
▁MC	-11.1733
▁Jamie	-11.1735
▁attracted	-11.1736
▁Lamb	-11.174
rine	-11.174
▁fin	-11.1741
lax	-11.1742
friend	-11.1743
▁EU	-11.1744
▁Ober	-11.1745
PD	-11.1746
▁referee	-11.1753
▁leagues	-11.1755
▁Armed	-11.1756
▁Raw	-11.1756
▁recurring	-11.1757
▁revival	-11.1757
▁restoration	-11.1757
▁universal	-11.1757
▁Orlando	-11.1757
▁involve	-11.1758
▁sculptor	-11.176
▁vast	-11.1766
▁Rhy	-11.1766
All	-11.1768
jack	-11.1771
▁rein	-11.1772
▁95	-11.1772
▁Cruz	-11.1775
▁principle	-11.1778
▁increasingly	-11.1779
▁bombing	-11.178
▁Ox	-11.1781
▁descend	-11.1782
▁execution	-11.1784
▁relief	-11.1784
▁garner	-11.1784
▁tackle	-11.1785
▁Obama	-11.1785
▁assessment	-11.1789
▁departments	-11.1792
▁printing	-11.1793
Vi	-11.1795
TO	-11.18
▁seeking	-11.1801
▁respective	-11.1802
▁Elections	-11.1808
▁Pete	-11.1808
▁judges	-11.1811
▁Cyprus	-11.1811
▁Distinguished	-11.1811
▁dominant	-11.1811
▁interpretation	-11.1811
▁chapel	-11.1812
▁Construction	-11.1814
▁losses	-11.1816
▁Organ	-11.1816
print	-11.1821
▁Marg	-11.1823
▁Border	-11.1823
▁hu	-11.1824
▁Tea	-11.1827
▁racer	-11.183
▁skill	-11.1831
market	-11.1832
▁sporting	-11.1835
▁Od	-11.1837
▁displays	-11.1838
▁fundamental	-11.1838
▁Gospel	-11.1839
▁Chrys	-11.1839
▁mandate	-11.1844
▁Albany	-11.1845
▁tract	-11.1846
▁Trump	-11.1846
▁farming	-11.1848
▁Wool	-11.1854
▁Maz	-11.1854
▁Lam	-11.1856
▁efficient	-11.1857
called	-11.1858
▁destroyer	-11.1862
imp	-11.1862
▁Ruth	-11.1862
▁proceed	-11.1865
anus	-11.1867
▁assault	-11.1867
▁1967.	-11.1869
▁Cox	-11.187
▁Chor	-11.187
▁Years	-11.187
▁alien	-11.1876
own	-11.1883
oco	-11.1886
▁Marcus	-11.189
▁bringing	-11.1891
▁healthcare	-11.1893
▁nationwide	-11.1893
▁(10	-11.1894
rab	-11.1895
▁WA	-11.1896
▁Gha	-11.19
▁reserves	-11.19
▁Potter	-11.1902
fford	-11.1902
▁Milton	-11.1904
▁Vil	-11.1915
mili	-11.1917
▁closure	-11.192
▁Catherine	-11.192
▁Richardson	-11.192
▁Survey	-11.1921
▁coordinate	-11.1921
yon	-11.1921
source	-11.1923
▁Cata	-11.1926
▁Interest	-11.1926
▁compact	-11.1931
▁conferences	-11.1931
▁Tang	-11.1936
rri	-11.1939
▁Room	-11.1945
▁Flo	-11.1946
▁Mercury	-11.1948
▁Isaac	-11.1948
▁Derbyshire	-11.1948
▁forty	-11.195
▁debt	-11.195
▁photographs	-11.1951
▁1966.	-11.1955
▁bro	-11.1959
▁coll	-11.196
▁visiting	-11.1962
▁boxing	-11.1963
▁quadr	-11.1965
author	-11.1973
▁spending	-11.1974
▁Ari	-11.1975
▁Elementary	-11.1975
▁conjunction	-11.1975
▁Double	-11.1975
▁harbor	-11.1975
▁WWE	-11.1975
▁alpine	-11.1976
▁cultures	-11.1976
▁Via	-11.1977
▁challenges	-11.1977
▁Aircraft	-11.1978
▁showcase	-11.198
▁rebuilt	-11.1982
▁Nord	-11.1984
600	-11.1988
zu	-11.1991
▁Cad	-11.1995
▁sentenced	-11.1997
CB	-11.2
▁twentieth	-11.2003
▁derivative	-11.2003
▁blend	-11.2003
▁monarch	-11.2003
▁tre	-11.2004
▁Edition	-11.2005
▁ballot	-11.2006
▁finalist	-11.2007
▁manufacturers	-11.2007
kon	-11.2011
▁Here	-11.2012
▁grassland	-11.2013
▁editorial	-11.2013
white	-11.2015
▁substantial	-11.2017
▁Inn	-11.2019
nik	-11.2019
▁horn	-11.2022
loy	-11.2024
pla	-11.2026
Hop	-11.2028
▁register	-11.203
▁62	-11.203
▁dwarf	-11.203
▁innovation	-11.203
gui	-11.2032
▁Pink	-11.2032
rug	-11.2033
▁Pier	-11.2033
▁sac	-11.2035
▁Players	-11.2037
▁Louisville	-11.2038
▁Ep	-11.2043
▁Let	-11.2043
▁listings	-11.2045
▁Steam	-11.2047
▁declined	-11.2051
▁sits	-11.2053
ulu	-11.2055
▁hence	-11.2056
▁powered	-11.2056
▁Morocco	-11.2058
▁Ultimate	-11.2058
▁eponymous	-11.2058
▁graduating	-11.2058
▁Arnold	-11.2058
▁Gibson	-11.2058
▁Abraham	-11.2058
▁Course	-11.2058
▁disorders	-11.206
▁skier	-11.206
▁innings	-11.2061
▁Clear	-11.2066
▁till	-11.2071
▁Ful	-11.2075
arra	-11.2078
▁retailer	-11.2079
mental	-11.2079
rous	-11.2085
▁Olympia	-11.2086
▁integration	-11.2086
▁prestigious	-11.2086
▁colored	-11.2086
▁Paramount	-11.2086
▁Qatar	-11.2086
▁quarterback	-11.2087
▁hub	-11.2089
▁1893	-11.209
▁Til	-11.2091
▁Midlands	-11.2093
▁steps	-11.2098
▁hunting	-11.2104
nidae	-11.2104
▁optical	-11.2112
urg	-11.2112
▁dialog	-11.2114
▁slug	-11.2114
▁abstract	-11.2114
▁Bennett	-11.2115
▁1883	-11.2119
▁Brother	-11.2123
▁tribute	-11.2125
▁heir	-11.2126
▁Hull	-11.2132
tian	-11.2136
▁journals	-11.2139
CH	-11.214
▁succeed	-11.2141
▁Campaign	-11.2142
▁Kashmir	-11.2142
▁consequence	-11.2142
▁emerging	-11.2142
▁statistical	-11.2142
▁Myanmar	-11.2142
▁Airlines	-11.2142
▁sustainable	-11.2144
▁Brewer	-11.2145
FO	-11.2146
sex	-11.2146
▁rice	-11.2147
▁1899	-11.2148
▁sight	-11.2148
▁Manila	-11.2149
stand	-11.2152
EN	-11.2155
host	-11.2163
▁Campus	-11.2164
methyl	-11.2166
▁recruit	-11.2169
▁Discovery	-11.217
▁Lithuania	-11.217
▁diameter	-11.217
▁shelter	-11.217
▁freight	-11.217
▁Contest	-11.2171
▁Bradford	-11.2172
▁suitable	-11.2173
▁gear	-11.2177
▁Bloom	-11.2178
iac	-11.218
▁Woods	-11.2181
screen	-11.2183
guitar	-11.2184
▁updated	-11.2186
▁volumes	-11.2187
VFL	-11.2188
▁borders	-11.2189
interpret	-11.2191
▁Laura	-11.2193
GS	-11.2197
▁sufficient	-11.2198
▁utility	-11.2198
▁wildlife	-11.2198
▁Bau	-11.2198
nock	-11.2203
▁1865	-11.2203
▁larvae	-11.2204
▁1887	-11.2204
▁suburban	-11.2207
▁Lucas	-11.2208
quire	-11.221
▁processor	-11.2212
Jo	-11.2213
▁CS	-11.2214
NR	-11.2215
▁arc	-11.222
▁segments	-11.222
▁presentation	-11.2224
▁360	-11.2224
▁cool	-11.2225
▁Armstrong	-11.2226
▁earthquake	-11.2226
▁economist	-11.2226
▁terrorist	-11.2228
▁Manor	-11.2228
▁flagship	-11.2229
▁Section	-11.2229
▁Gru	-11.2229
spire	-11.2232
▁gap	-11.2233
▁Elm	-11.2236
▁remove	-11.2236
▁damaged	-11.2237
▁journalism	-11.2238
▁Where	-11.2245
▁sailing	-11.2247
▁tribes	-11.2247
▁accurate	-11.2254
▁Pic	-11.2255
building	-11.2257
▁adding	-11.2257
DM	-11.2264
▁Guardian	-11.2266
chu	-11.2267
ego	-11.2267
governmental	-11.2269
▁Gir	-11.227
▁Mod	-11.2272
SB	-11.2272
zh	-11.2273
Bu	-11.2274
tang	-11.2274
▁Rice	-11.2282
▁Industries	-11.2282
▁conclusion	-11.2282
▁Stockholm	-11.2283
▁Bul	-11.2283
▁Curtis	-11.2284
▁vein	-11.2284
▁trademark	-11.2284
▁lie	-11.2285
▁cream	-11.2288
upcoming	-11.2288
▁1983,	-11.2288
built	-11.229
▁binding	-11.2292
▁1941)	-11.2292
cla	-11.2293
▁Lip	-11.2293
French	-11.2297
kal	-11.2297
▁sixteen	-11.2299
loo	-11.2301
▁Living	-11.2302
▁Made	-11.2302
▁72	-11.2304
▁vir	-11.2308
▁golden	-11.2309
▁Writers	-11.2309
▁suspended	-11.2311
▁signature	-11.2311
▁repeat	-11.2311
▁combines	-11.2312
▁outcome	-11.2312
▁cooperation	-11.2312
▁why	-11.2313
ket	-11.2314
▁Chil	-11.2316
▁mut	-11.2318
▁Globe	-11.2319
▁yard	-11.2319
aph	-11.2321
icide	-11.2322
▁Hun	-11.2323
▁Sullivan	-11.2323
▁notice	-11.2323
▁Say	-11.2329
LL	-11.2332
▁listing	-11.2332
▁trials	-11.2339
▁Literature	-11.2339
▁Official	-11.2339
▁Plymouth	-11.2339
▁Clarke	-11.2342
▁offense	-11.2343
▁Roth	-11.2345
izer	-11.2345
▁says	-11.2347
▁Electronic	-11.2349
▁UCI	-11.2354
bing	-11.2354
▁profession	-11.2356
odi	-11.2356
▁Hero	-11.2358
▁bound	-11.2359
▁rated	-11.2363
▁Cel	-11.2367
▁Fly	-11.2367
▁fragment	-11.2368
▁Treaty	-11.2368
▁Windsor	-11.2368
▁61	-11.2369
▁59	-11.237
▁Ulster	-11.237
▁lifestyle	-11.2373
▁chess	-11.2373
▁sit	-11.2376
▁regulation	-11.2377
▁Paralympic	-11.2377
▁enhance	-11.2379
▁PS	-11.2382
school	-11.2383
avier	-11.2395
▁astronomer	-11.2397
▁Jeffrey	-11.2397
▁prehistoric	-11.2397
▁trilogy	-11.2397
▁donated	-11.2399
fest	-11.2401
▁elite	-11.2402
▁generate	-11.2402
▁executed	-11.2403
▁Liga	-11.2408
▁dense	-11.2408
lect	-11.2409
▁Marion	-11.241
▁meets	-11.2411
signed	-11.2411
grove	-11.2414
engine	-11.2415
▁Mull	-11.2416
▁insect	-11.2416
▁compounds	-11.242
rew	-11.242
▁Carnegie	-11.2425
▁Jerusalem	-11.2425
▁helicopter	-11.2425
▁Fraser	-11.2426
▁cyto	-11.2426
rush	-11.2428
▁Watch	-11.2428
crim	-11.2429
-7	-11.2431
▁Bears	-11.2432
▁interested	-11.2433
▁Glenn	-11.2436
posed	-11.2437
eti	-11.244
ider	-11.2441
▁Kai	-11.2444
solv	-11.2444
▁Rosen	-11.2446
▁shops	-11.2452
shed	-11.2453
▁Azerbaijan	-11.2454
▁collapse	-11.2454
▁garage	-11.2455
▁ahead	-11.2455
▁Full	-11.2456
▁collaborated	-11.2462
▁signing	-11.2463
▁hear	-11.2465
hit	-11.2465
▁liter	-11.2469
▁stayed	-11.2471
aud	-11.2472
▁linear	-11.2473
▁rounds	-11.2478
▁Dec	-11.2479
▁theaters	-11.248
▁collector	-11.2481
▁Hyderabad	-11.2483
▁shield	-11.2483
▁copyright	-11.2483
▁Take	-11.2483
▁Edmund	-11.2483
▁Patriot	-11.2484
▁Stories	-11.2484
ellidae	-11.2484
▁pump	-11.2484
▁establishing	-11.2485
formed	-11.2487
▁Mario	-11.2487
▁copper	-11.249
▁driven	-11.2494
▁bush	-11.2494
▁120	-11.2496
ggy	-11.2497
▁Rolling	-11.2497
gul	-11.2504
▁Amy	-11.2507
▁1965.	-11.2509
▁hurling	-11.2512
▁beneath	-11.2512
▁mascot	-11.2512
▁overlook	-11.2512
▁entity	-11.2512
▁ultra	-11.2512
▁Present	-11.2513
▁Interstate	-11.2513
UC	-11.2515
gla	-11.2521
▁boats	-11.2521
aux	-11.2527
hid	-11.2527
▁67	-11.2528
DR	-11.2529
▁Lie	-11.253
▁Sisters	-11.253
only	-11.2533
▁68	-11.2534
ryn	-11.2535
▁roller	-11.2536
▁arrival	-11.2541
▁Thames	-11.2542
▁Creative	-11.2543
ening	-11.2544
▁Viking	-11.2545
▁Audi	-11.2546
▁1864	-11.2546
▁Dame	-11.2547
▁Carlton	-11.2554
kle	-11.2559
alo	-11.256
▁Bai	-11.2562
▁Around	-11.2564
▁maker	-11.2564
RL	-11.2567
▁situations	-11.2568
▁eleventh	-11.2569
gest	-11.2569
▁Nottingham	-11.257
▁Chronicle	-11.257
▁Marathon	-11.257
▁Thursday	-11.257
▁ESPN	-11.257
▁palace	-11.2571
▁geo	-11.2573
▁Christianity	-11.2573
▁feeling	-11.2582
opo	-11.2583
▁hypo	-11.2584
▁Jen	-11.2584
▁tourism	-11.2585
▁1963.	-11.2585
▁Ranch	-11.2585
metry	-11.2588
▁sil	-11.2588
▁Name	-11.2593
grade	-11.2594
▁Dock	-11.2594
▁erected	-11.2597
▁immigrants	-11.2598
▁societies	-11.2599
▁varieties	-11.2599
▁Graduate	-11.2599
▁gecko	-11.2599
▁gospel	-11.2599
▁superior	-11.2599
▁module	-11.26
▁teeth	-11.26
▁Fellowship	-11.2602
▁Pis	-11.2603
▁unreleased	-11.2605
▁Pitt	-11.2606
▁switched	-11.2609
▁rush	-11.2615
▁Bala	-11.2616
▁Ec	-11.2617
▁brands	-11.2618
▁wickets	-11.262
▁Andre	-11.262
ulus	-11.262
lur	-11.2621
▁Case	-11.2622
▁Moor	-11.2625
▁Competition	-11.2629
▁Malawi	-11.263
▁CC	-11.2632
▁Worth	-11.2634
▁theories	-11.2636
▁RAF	-11.2637
AG	-11.2637
walk	-11.2639
▁shoulder	-11.264
▁Drug	-11.2643
▁1976,	-11.2643
▁usual	-11.2647
Ja	-11.2648
▁streams	-11.2651
▁employer	-11.2652
rai	-11.2653
▁Comm	-11.2656
guard	-11.2658
▁Faculty	-11.2658
▁placing	-11.2658
▁reducing	-11.2658
▁Davies	-11.2658
▁jail	-11.2658
▁Allied	-11.2659
▁flank	-11.266
▁Hamburg	-11.266
▁permit	-11.2662
▁Persian	-11.2663
oda	-11.2664
tag	-11.2664
▁(3	-11.2664
mission	-11.2671
And	-11.2673
▁Heath	-11.2674
▁inception	-11.2675
camp	-11.2675
▁marking	-11.2675
leigh	-11.2675
uga	-11.2677
▁mounted	-11.2678
▁nicknamed	-11.2684
▁Belle	-11.2684
▁Rocky	-11.2685
▁Pay	-11.2685
▁Commercial	-11.2688
▁autonomous	-11.2688
▁exploration	-11.2688
▁skating	-11.2688
HC	-11.2691
▁references	-11.2692
▁1940)	-11.2694
▁helps	-11.2697
▁skater	-11.2698
▁staged	-11.2702
▁exhibit	-11.2702
das	-11.2703
▁Glo	-11.2707
▁Letter	-11.2707
▁Libya	-11.2708
cz	-11.2708
ographer	-11.271
▁variations	-11.2713
▁badminton	-11.2717
LE	-11.2718
▁parks	-11.2718
▁Iraqi	-11.2718
▁nothing	-11.2719
▁fastest	-11.2721
▁derives	-11.2722
▁deposit	-11.2724
VI	-11.2724
ception	-11.2726
tana	-11.2729
ulin	-11.2732
▁Solar	-11.2735
-15	-11.2736
▁Evan	-11.2738
▁turning	-11.2738
▁AP	-11.274
▁Burton	-11.2741
▁Joel	-11.2745
▁Archbishop	-11.2746
▁adapt	-11.2747
▁Crawford	-11.2747
▁pulmonate	-11.2747
▁injuries	-11.2747
▁Hodges	-11.2747
▁abroad	-11.2747
▁admitted	-11.2748
▁Carroll	-11.2749
▁curve	-11.2749
▁Stoke	-11.275
▁Winn	-11.2751
▁detective	-11.2751
▁polymer	-11.2751
▁Sau	-11.2752
▁Dominican	-11.2756
▁flash	-11.2757
tham	-11.2761
▁Joy	-11.2763
▁filed	-11.2766
course	-11.2768
▁developers	-11.2769
pend	-11.277
▁eggs	-11.2772
▁Tax	-11.2776
▁Tuesday	-11.2777
▁linebacker	-11.2777
▁graph	-11.2777
▁modification	-11.2777
▁Warriors	-11.2777
▁Stage	-11.2778
▁Annual	-11.2779
▁recommended	-11.2781
▁SM	-11.2782
▁Flying	-11.2782
▁crowned	-11.2784
▁Near	-11.2786
▁Chap	-11.2787
▁Llan	-11.2788
▁Myr	-11.2788
▁Prim	-11.2789
▁Male	-11.279
▁63	-11.2792
▁Step	-11.2795
▁inspiration	-11.2797
▁grid	-11.2799
tab	-11.28
mbe	-11.2801
▁philosopher	-11.2807
▁trouble	-11.2807
▁absence	-11.2807
▁alliance	-11.2807
▁Sheriff	-11.2807
▁mod	-11.2807
▁worker	-11.2808
▁surf	-11.2808
▁Choice	-11.2809
▁Cut	-11.2809
▁uncle	-11.281
▁regulatory	-11.2814
▁strain	-11.2815
▁Glass	-11.2815
▁sn	-11.2817
▁Southwest	-11.2819
▁note	-11.2819
▁dealing	-11.2826
Connor	-11.2829
Col	-11.2831
▁69	-11.2832
▁variants	-11.2834
▁belong	-11.2836
▁develops	-11.2836
▁equipped	-11.2836
▁lizard	-11.2836
▁trigger	-11.2837
▁seems	-11.2838
▁knee	-11.2838
▁HIV	-11.2839
▁Adrian	-11.2839
▁calling	-11.284
▁Path	-11.284
▁Lutheran	-11.2841
▁Nancy	-11.2843
ood	-11.2844
mod	-11.2847
▁Engineers	-11.285
▁Leigh	-11.2852
vey	-11.2855
vig	-11.2857
▁bore	-11.2858
serve	-11.2858
▁1981,	-11.2858
ould	-11.2859
lysis	-11.2861
▁attacked	-11.2864
fan	-11.2866
fit	-11.2867
▁creature	-11.2867
▁conversion	-11.2867
▁Munich	-11.2868
AIDS	-11.287
▁courthouse	-11.2872
▁ferry	-11.2873
PG	-11.2874
CU	-11.2877
▁strongly	-11.2877
▁...	-11.288
atta	-11.2883
▁Cir	-11.2884
county	-11.2885
ibility	-11.2886
▁Lion	-11.2887
▁Pos	-11.289
▁sailor	-11.2891
IB	-11.2893
▁interact	-11.2894
▁Eng	-11.2894
Un	-11.2895
▁tons	-11.2896
▁Confederation	-11.2897
▁percussion	-11.2897
▁preservation	-11.2897
▁Stevens	-11.2897
▁reduction	-11.2897
▁superfamily	-11.2897
▁illness	-11.2898
▁Speed	-11.2899
▁Mack	-11.2903
▁Maj	-11.2909
▁Nathan	-11.2909
▁separately	-11.2913
▁performers	-11.2914
▁settlers	-11.2915
▁SP	-11.2918
AI	-11.2919
▁Shire	-11.292
▁commemorate	-11.2921
eman	-11.2923
▁disciplines	-11.2925
▁Interactive	-11.2928
▁Mile	-11.293
▁1881	-11.2931
▁Sul	-11.2932
▁screened	-11.2933
▁speaking	-11.2934
▁getting	-11.2934
▁1938)	-11.2937
▁Still	-11.2938
▁advisor	-11.2941
▁farmers	-11.2943
ounce	-11.2943
▁eliminated	-11.2943
▁Malta	-11.2944
▁mention	-11.2946
appear	-11.2947
▁coaches	-11.2949
▁competitor	-11.2951
▁employee	-11.2953
name	-11.2953
▁Jeremy	-11.2957
▁sediment	-11.2957
▁Revolutionary	-11.2961
▁poems	-11.2969
▁Artist	-11.2972
obacter	-11.2972
▁macro	-11.2972
tol	-11.2973
issa	-11.2975
▁Ek	-11.2978
aq	-11.2984
phin	-11.2985
▁Henri	-11.2986
space	-11.2987
▁Aboriginal	-11.2988
▁Citizen	-11.2988
▁Reading	-11.2988
fil	-11.2991
▁bow	-11.2993
▁Bengali	-11.2996
▁Crystal	-11.2996
mag	-11.2997
▁Apart	-11.2999
mol	-11.2999
▁Got	-11.3
pati	-11.3
▁Carlos	-11.3001
▁Rac	-11.3001
▁prisoners	-11.3004
▁Foot	-11.3006
▁refused	-11.3006
▁Andrews	-11.3008
five	-11.301
rib	-11.3011
ffin	-11.3011
▁peri	-11.3017
▁Volleyball	-11.3018
▁advocacy	-11.3018
▁peninsula	-11.3018
▁rejected	-11.3018
road	-11.3019
▁happen	-11.302
▁Normandy	-11.3021
▁1862	-11.3023
▁hearing	-11.3024
▁NC	-11.3025
▁pond	-11.3025
▁Jaya	-11.3028
fix	-11.303
▁Pru	-11.3033
▁breeding	-11.3033
▁remembered	-11.3034
▁Fol	-11.3036
kie	-11.3037
tina	-11.3039
▁spoke	-11.304
trem	-11.3047
▁prevalent	-11.3049
▁Quarter	-11.3049
▁UEFA	-11.3049
▁Henderson	-11.3049
▁Index	-11.3049
▁plea	-11.3049
▁mutual	-11.3049
▁gardens	-11.305
▁Brighton	-11.3053
▁lit	-11.3054
flow	-11.3058
▁Watt	-11.3062
▁Webb	-11.3065
▁1939)	-11.3072
▁ratio	-11.3077
▁distributor	-11.3079
▁endangered	-11.3079
▁wrong	-11.3079
▁premise	-11.3079
▁Hin	-11.308
▁wedding	-11.308
zel	-11.308
▁cattle	-11.3083
▁1876	-11.3084
▁Prison	-11.3087
ista	-11.3089
▁noble	-11.309
oka	-11.3092
▁Jer	-11.3092
▁Arabic	-11.3096
▁Ill	-11.3096
▁Kap	-11.3103
deemed	-11.3106
mala	-11.3109
▁Fantasy	-11.311
▁Hurricane	-11.311
▁Shanghai	-11.311
▁accommodate	-11.311
▁synthesis	-11.311
▁filter	-11.311
▁chip	-11.3111
▁varied	-11.3111
▁Tyrion	-11.3113
▁corps	-11.3113
uku	-11.3114
▁Brooks	-11.3115
usa	-11.3117
▁Any	-11.3118
▁lady	-11.3118
▁depot	-11.312
▁AT	-11.3121
▁Sing	-11.3125
▁Tap	-11.3125
▁Astro	-11.3126
▁Kenny	-11.3129
speaking	-11.3132
ifying	-11.3135
▁handled	-11.3139
▁99	-11.3141
▁Amendment	-11.3141
▁Collegiate	-11.3141
▁colleague	-11.3141
▁Guitar	-11.3141
▁laboratory	-11.3141
▁Macedonia	-11.3142
▁sitting	-11.3143
▁Faith	-11.3143
enter	-11.3146
▁Novel	-11.3151
▁pathway	-11.3152
▁Musical	-11.3155
▁bag	-11.3156
▁Link	-11.3158
▁eu	-11.316
mere	-11.3165
Go	-11.3169
▁attending	-11.317
throp	-11.3172
▁ingredient	-11.3172
▁trumpet	-11.3172
▁blind	-11.3172
▁prospect	-11.3172
▁Ladies	-11.3172
▁costume	-11.3173
▁wire	-11.3175
▁remainder	-11.3176
▁Logan	-11.3179
▁Luis	-11.318
▁swing	-11.3182
inder	-11.3183
▁Sig	-11.3184
▁Cau	-11.3186
▁Starr	-11.319
▁Louise	-11.3191
▁Mini	-11.3191
▁Gur	-11.3194
▁genes	-11.3194
▁Nag	-11.3194
▁Sang	-11.3196
▁sky	-11.3201
▁Concert	-11.3204
▁saint	-11.3204
fully	-11.3206
iko	-11.3206
▁humor	-11.3208
▁1884	-11.3208
▁1861	-11.3209
▁pest	-11.3209
sher	-11.321
▁Karen	-11.3211
▁greatly	-11.3211
▁2019	-11.3213
▁Haven	-11.3222
Or	-11.3224
▁authorized	-11.3225
▁Dry	-11.3225
chro	-11.3225
▁columns	-11.3229
▁topic	-11.3229
eter	-11.3234
▁pap	-11.3234
▁certificate	-11.3234
▁Criminal	-11.3234
▁diversity	-11.3234
▁Greene	-11.3235
▁1800	-11.3236
▁Lauren	-11.3236
▁caught	-11.3236
▁Ivan	-11.3238
▁diving	-11.3239
ovi	-11.3239
▁73	-11.324
▁concepts	-11.3241
▁Nav	-11.3242
▁doors	-11.3243
▁Kenyan	-11.3243
yx	-11.3248
utt	-11.3251
▁campaigns	-11.3253
PM	-11.3254
negative	-11.3257
▁breaking	-11.3258
▁Wednesday	-11.3265
▁senator	-11.3266
▁Dem	-11.3266
eye	-11.3267
▁Half	-11.327
▁Poll	-11.3272
▁lens	-11.3277
▁Angels	-11.3278
park	-11.3281
▁slave	-11.3281
yu	-11.3283
▁emerge	-11.3286
▁Dai	-11.3287
▁bal	-11.3288
▁GT	-11.329
▁quarterly	-11.3295
▁exact	-11.3296
fen	-11.3297
▁prominence	-11.3297
▁dwelling	-11.3297
▁exceed	-11.3297
▁Shield	-11.3297
▁Housing	-11.3297
▁Stark	-11.3297
▁mythology	-11.3298
▁discipline	-11.3299
▁tomb	-11.3299
DO	-11.3301
▁aerial	-11.3301
shot	-11.3302
▁74	-11.3303
▁Level	-11.3303
▁lakes	-11.3304
▁erect	-11.3305
▁manual	-11.3305
▁logo	-11.3306
▁crypt	-11.3306
Hip	-11.3307
▁slot	-11.3308
She	-11.3311
often	-11.3316
dding	-11.3317
▁rulers	-11.3319
dong	-11.332
hou	-11.3321
chia	-11.3326
liber	-11.3326
▁expensive	-11.3328
▁feminist	-11.3328
▁witness	-11.3328
▁cathedral	-11.3328
virus	-11.3328
▁adjust	-11.3328
▁Scholar	-11.3329
burgh	-11.3329
▁Tunisia	-11.3329
▁grain	-11.3331
▁Tab	-11.3332
▁Tyler	-11.3333
▁Ace	-11.3335
keeper	-11.3339
▁wealth	-11.3344
▁Table	-11.3345
▁connections	-11.3345
rrell	-11.3346
▁update	-11.3347
▁unsuccessful	-11.3347
(	-11.3352
South	-11.3352
TF	-11.3353
▁Pierre	-11.3354
quality	-11.3354
▁Hack	-11.3354
▁Arc	-11.3358
▁Alpha	-11.3359
▁Pac	-11.336
▁Luxembourg	-11.336
▁coffee	-11.336
▁delegate	-11.336
▁Gloucestershire	-11.336
▁sprinter	-11.336
▁rising	-11.3362
▁Duncan	-11.3362
▁Return	-11.3362
▁Lodge	-11.3365
▁columnist	-11.3366
▁Relations	-11.3366
▁Feature	-11.3368
▁Meta	-11.3369
▁Lit	-11.3369
▁stake	-11.3372
▁plantation	-11.3373
aught	-11.3377
child	-11.3381
Am	-11.3383
RF	-11.3388
fold	-11.3388
NG	-11.3389
▁Bend	-11.3391
▁Account	-11.3391
▁Resolution	-11.3391
▁collegiate	-11.3391
▁destruction	-11.3391
▁networking	-11.3392
▁Canyon	-11.3392
▁struck	-11.3392
▁banned	-11.3393
▁assess	-11.3394
▁Instead	-11.3394
ario	-11.3394
▁variation	-11.3396
▁1863	-11.3396
▁Archive	-11.3397
▁signals	-11.34
▁myth	-11.3403
▁Liberia	-11.3403
▁mag	-11.3409
▁Hydro	-11.3409
comb	-11.3413
▁inscription	-11.3415
▁prices	-11.3416
cret	-11.3417
▁cent	-11.3417
What	-11.3423
▁doctrine	-11.3423
▁nest	-11.3426
▁engagement	-11.3428
lord	-11.343
▁dragon	-11.3431
▁Winston	-11.3432
▁achievement	-11.3433
▁Yan	-11.3438
▁apparent	-11.3442
▁Corp	-11.3443
▁1500	-11.3443
▁Electronics	-11.3446
mot	-11.3446
▁Past	-11.3447
▁procedures	-11.3448
▁Grande	-11.3455
▁Senegal	-11.3455
▁substitute	-11.3455
▁Hopkins	-11.3455
▁Holmes	-11.3456
▁import	-11.346
▁initiated	-11.3461
▁Powell	-11.3462
▁1886	-11.3464
Saxon	-11.3466
▁Hip	-11.3468
▁walking	-11.347
ophy	-11.3472
pie	-11.3473
▁Princeton	-11.3476
radi	-11.3478
national	-11.3479
▁Mail	-11.3481
▁contra	-11.3482
▁Jal	-11.3484
▁ridge	-11.3484
▁Kot	-11.3486
▁Kad	-11.3486
▁Timothy	-11.3487
▁capabilities	-11.3487
▁collaborative	-11.3487
▁limestone	-11.3487
▁nephew	-11.3487
▁portfolio	-11.3487
▁poverty	-11.3487
▁uncertain	-11.3487
▁arcade	-11.3488
▁populated	-11.3488
▁dangerous	-11.3488
▁lowland	-11.3488
▁celebrate	-11.3491
▁Boat	-11.3492
▁Chuck	-11.3496
▁depicted	-11.3497
▁introduce	-11.3501
▁volunteers	-11.3502
▁Mongolia	-11.3502
dimensional	-11.3502
▁learned	-11.3503
rou	-11.3503
▁Vid	-11.3503
▁fusion	-11.3503
ctus	-11.3503
4,000	-11.3504
▁repeated	-11.3506
▁Miles	-11.3506
zing	-11.3508
▁Hick	-11.3508
▁True	-11.3514
▁recreational	-11.3517
▁McDonald	-11.3519
▁brigade	-11.3519
▁circulation	-11.3519
▁circumstances	-11.3519
▁Testament	-11.3519
▁burial	-11.3519
▁Screen	-11.3519
▁Turk	-11.3519
▁drew	-11.352
bler	-11.352
▁radiation	-11.352
Don	-11.3522
▁1872	-11.3524
▁Monster	-11.3527
▁belief	-11.3527
▁golfer	-11.3529
lice	-11.3529
▁lowest	-11.3531
▁Thur	-11.3532
tler	-11.3532
▁Franco	-11.3538
▁Kerry	-11.3538
race	-11.3539
open	-11.3539
▁Pit	-11.3541
▁loose	-11.3542
▁Wick	-11.3544
▁Right	-11.3546
▁diet	-11.3547
mina	-11.355
▁cuisine	-11.3551
▁medication	-11.3551
▁neither	-11.3551
▁pseudonym	-11.3551
▁registration	-11.3551
▁yield	-11.3551
ucci	-11.3553
▁Edgar	-11.3555
▁Bil	-11.3555
flex	-11.3558
▁parking	-11.3565
rod	-11.3567
▁Left	-11.357
▁coin	-11.3572
bay	-11.3577
May	-11.3577
enza	-11.3578
cidae	-11.3579
▁Bry	-11.358
▁Cardinals	-11.3581
▁rib	-11.3583
▁regime	-11.3583
▁Roosevelt	-11.3583
▁celebrity	-11.3583
▁pseudo	-11.3583
▁Volume	-11.3583
▁Resort	-11.3584
▁cotton	-11.3584
bill	-11.3584
▁random	-11.3585
▁colonies	-11.3586
▁Lead	-11.3586
▁Plaza	-11.3586
▁jet	-11.3587
▁mouse	-11.3588
▁patch	-11.3589
Parliamentary	-11.3589
issue	-11.3592
plat	-11.3593
▁wicket	-11.3593
3)	-11.3598
▁Spec	-11.3598
▁Flat	-11.3599
▁stems	-11.3601
purpose	-11.3603
▁Cab	-11.3603
▁Kit	-11.3607
▁scan	-11.3611
▁Mora	-11.3611
▁tasks	-11.3612
▁Af	-11.3612
▁cater	-11.3612
▁Archdiocese	-11.3616
▁curriculum	-11.3616
▁ordained	-11.3616
▁Berkshire	-11.3616
▁Beth	-11.3617
▁receives	-11.3619
gill	-11.362
assa	-11.3621
ND	-11.3623
isation	-11.3623
▁exposed	-11.3623
▁stored	-11.3624
▁toxic	-11.3625
bee	-11.3625
▁engage	-11.3626
▁1998)	-11.3627
▁Dayton	-11.3628
case	-11.3629
▁Yar	-11.363
carp	-11.363
▁Shak	-11.3637
▁Know	-11.3637
▁Algeria	-11.3638
▁Gul	-11.3638
▁rub	-11.3641
second	-11.3643
▁Sham	-11.3644
cene	-11.3644
▁assisted	-11.3645
▁hectares	-11.3647
▁violent	-11.3648
OM	-11.3654
▁endo	-11.3658
▁hospitals	-11.3658
anne	-11.366
wave	-11.3664
tid	-11.3667
▁Money	-11.3669
▁Jag	-11.3671
▁tries	-11.3673
onym	-11.3675
▁Thai	-11.3678
▁Cumberland	-11.3681
▁Emeritus	-11.3681
▁Lombard	-11.3681
▁podcast	-11.3681
▁enable	-11.3681
▁Throughout	-11.3682
▁Cheshire	-11.3683
▁targeted	-11.3684
emp	-11.3687
▁amino	-11.3687
▁Pack	-11.3689
▁possession	-11.3692
▁Northeast	-11.3694
hip	-11.3697
▁Vision	-11.3697
gala	-11.3703
educational	-11.3704
pathy	-11.3704
▁Linda	-11.3705
makers	-11.3705
zzo	-11.3707
aving	-11.3709
hai	-11.3712
▁Similar	-11.3713
▁removal	-11.3713
▁harvest	-11.3713
▁mines	-11.3713
▁maintaining	-11.3714
▁organisms	-11.3714
▁gaming	-11.3715
▁Cedar	-11.3715
▁Herman	-11.3715
▁referring	-11.3716
▁85	-11.3717
▁arrest	-11.3718
▁Kala	-11.3721
wr	-11.3723
▁vent	-11.3725
▁campuses	-11.373
▁varying	-11.373
▁extend	-11.3731
▁101	-11.3732
▁Hebrew	-11.3736
▁Mono	-11.3736
▁Ned	-11.3745
▁displayed	-11.3745
▁96	-11.3745
▁Worcester	-11.3746
▁survival	-11.3746
▁innovative	-11.3746
▁Rwanda	-11.3746
▁smoke	-11.3747
▁diesel	-11.3747
▁violation	-11.3747
▁iOS	-11.3748
BO	-11.375
lene	-11.3751
▁Estonian	-11.3756
▁investors	-11.3757
toria	-11.3759
▁apparently	-11.3759
▁bordered	-11.376
▁bath	-11.3761
operative	-11.3765
opter	-11.3766
rance	-11.3769
von	-11.3772
git	-11.3774
channel	-11.3775
motion	-11.3777
plan	-11.3778
▁Change	-11.3779
▁complain	-11.378
▁Singer	-11.3782
▁Cancer	-11.3783
▁reveal	-11.3784
▁Tai	-11.3786
▁teen	-11.3786
▁Face	-11.3788
▁Pon	-11.379
▁investigate	-11.3794
▁Merri	-11.3795
page	-11.3804
▁stereo	-11.3805
RD	-11.3805
current	-11.3807
complete	-11.3807
▁suppress	-11.3812
▁entities	-11.3812
▁recruited	-11.3812
▁Maurice	-11.3813
▁busses	-11.3814
▁Pearl	-11.3815
▁Torre	-11.3815
▁Grave	-11.3816
This	-11.3818
▁Jacksonville	-11.3819
▁Kee	-11.382
▁98	-11.382
▁Never	-11.3822
IG	-11.3822
▁deck	-11.3822
▁shaped	-11.3823
▁worth	-11.3824
dah	-11.3825
▁Charleston	-11.3825
▁earn	-11.3827
▁exhibitions	-11.3829
▁Fern	-11.3836
rail	-11.3837
▁DS	-11.3838
▁promotes	-11.3839
wrote	-11.3841
▁Telangana	-11.3845
▁discrimination	-11.3845
▁renovation	-11.3845
▁Doll	-11.3845
▁blade	-11.3845
held	-11.3846
▁submitted	-11.3846
▁Hampton	-11.3847
▁automatically	-11.3847
▁bread	-11.3847
▁promise	-11.3849
oga	-11.3849
iller	-11.385
nica	-11.3851
▁gall	-11.3851
▁Haiti	-11.3852
▁Blair	-11.3853
▁hetero	-11.3855
▁Rho	-11.3856
▁Amar	-11.3857
wang	-11.3858
East	-11.386
▁fold	-11.3861
▁essay	-11.3862
▁essentially	-11.3863
▁calculat	-11.3863
III	-11.3864
film	-11.3864
▁editing	-11.3864
Sha	-11.3866
▁differs	-11.387
▁whi	-11.3873
▁occasional	-11.3875
▁sustain	-11.3876
▁moon	-11.3876
kam	-11.3877
▁Classical	-11.3877
chem	-11.3877
▁Griffith	-11.3878
▁translator	-11.3878
▁interchange	-11.3878
lateral	-11.3879
▁hiatus	-11.3879
▁Planning	-11.388
omorph	-11.3881
nett	-11.3883
▁Squ	-11.3884
▁percentage	-11.3884
▁adopt	-11.3885
▁Kre	-11.3888
▁Jesse	-11.3889
Sc	-11.3889
PE	-11.389
▁Ske	-11.3891
▁gameplay	-11.3892
▁Croatian	-11.3894
layer	-11.3896
▁Albanian	-11.3896
▁Ib	-11.3899
▁interactions	-11.39
present	-11.3902
▁recall	-11.3906
▁ratings	-11.3907
▁Jakarta	-11.3912
▁Kolkata	-11.3912
▁Reynolds	-11.3912
▁supplied	-11.3912
▁atmosphere	-11.3912
▁electorate	-11.3912
▁saying	-11.3912
▁Flag	-11.3912
▁CH	-11.3914
▁gradually	-11.3915
▁Leg	-11.3916
▁emotional	-11.3916
wind	-11.3917
▁maps	-11.3917
▁hills	-11.3918
buck	-11.3919
claim	-11.3919
▁Adventures	-11.392
▁paint	-11.3921
▁Fighter	-11.3924
▁71	-11.3929
▁Neuro	-11.3929
▁Student	-11.393
utter	-11.3932
▁Spin	-11.3933
HO	-11.3937
alla	-11.3938
▁pulled	-11.3939
▁Tol	-11.3945
▁Leicester	-11.3945
▁mathematical	-11.3945
▁Meadow	-11.3946
▁signs	-11.395
▁taste	-11.3952
▁recovery	-11.3958
▁Artists	-11.3958
▁Chen	-11.3958
▁lab	-11.3959
▁extract	-11.3961
SN	-11.3963
▁Reid	-11.3967
▁Access	-11.397
IV	-11.3973
quo	-11.3975
▁Sons	-11.3975
▁Prairie	-11.3979
▁lawsuit	-11.398
▁hardcore	-11.3981
▁Hurling	-11.3982
▁inhibitor	-11.3988
▁Bach	-11.3989
▁77	-11.3991
▁seal	-11.3992
▁vol	-11.3993
▁sin	-11.3997
▁Legal	-11.3997
wide	-11.3998
-9	-11.3999
after	-11.3999
▁achievements	-11.4007
lah	-11.4008
eight	-11.4008
▁Marsh	-11.4009
plasm	-11.4012
▁culminat	-11.4012
▁improving	-11.4012
▁practitioner	-11.4012
▁sovereign	-11.4012
▁twelfth	-11.4012
▁preceded	-11.4012
▁bankruptcy	-11.4013
▁enrollment	-11.4014
▁Latvia	-11.4014
rak	-11.4015
▁Vernon	-11.4015
▁gather	-11.4015
▁compositions	-11.4016
▁Chandra	-11.4017
ashi	-11.4017
▁grandson	-11.4018
▁Slav	-11.4023
▁destroy	-11.4023
▁honorary	-11.4024
brew	-11.4024
▁cro	-11.4033
▁125	-11.4033
▁pea	-11.4034
▁pictures	-11.4036
▁Epic	-11.4036
iano	-11.4039
▁rebel	-11.404
MR	-11.4041
ulata	-11.4043
▁correspond	-11.4045
▁Lancaster	-11.4046
▁consumption	-11.4046
cylinder	-11.4046
▁Chemical	-11.4046
▁scandal	-11.4047
▁Stefan	-11.4048
▁Underground	-11.4048
▁thereafter	-11.4049
▁Chapter	-11.4051
vian	-11.4051
xe	-11.4053
eater	-11.4054
Gu	-11.4055
▁Flash	-11.4057
▁keeping	-11.4061
▁Jamaican	-11.4066
▁Morrison	-11.4068
agan	-11.407
▁Troy	-11.407
▁Estonia	-11.4071
▁AG	-11.4079
▁cognitive	-11.408
▁lobby	-11.408
▁geographic	-11.4083
▁shoe	-11.4084
▁Georgian	-11.4084
▁defect	-11.4088
▁Hugo	-11.4096
▁clip	-11.4098
▁Wyn	-11.41
▁ideal	-11.4102
▁weapon	-11.4103
oso	-11.4108
▁palm	-11.4109
▁Cell	-11.4113
hee	-11.4113
▁NE	-11.4114
▁Hungarian	-11.4114
▁Palestinian	-11.4114
▁revived	-11.4114
▁timber	-11.4114
▁voyage	-11.4114
▁ordinary	-11.4114
▁Raiders	-11.4114
▁alumni	-11.4114
▁Aquatics	-11.4114
him	-11.4114
▁cone	-11.4116
▁correspondent	-11.4116
static	-11.4116
▁Wu	-11.4117
▁Laos	-11.4121
▁deployed	-11.4123
▁PBS	-11.4126
onda	-11.4126
▁Kilda	-11.4129
LO	-11.413
▁Communication	-11.4138
▁Pap	-11.414
▁samples	-11.4141
oxide	-11.4144
▁Rica	-11.4147
▁irregular	-11.4148
▁Philosophy	-11.4148
▁facing	-11.4148
▁supporters	-11.4149
▁Visual	-11.4149
▁bottle	-11.415
▁Pool	-11.4151
▁shall	-11.4152
▁Dorset	-11.4153
rama	-11.4162
mund	-11.4164
▁Porter	-11.4165
phia	-11.4165
▁divide	-11.4166
▁Chang	-11.4166
▁Salem	-11.4167
▁tub	-11.4168
▁Clan	-11.4173
▁coined	-11.4179
▁Pil	-11.4179
country	-11.418
▁Bulldogs	-11.4183
▁racehorse	-11.4183
south	-11.4184
puram	-11.4186
▁trap	-11.4189
moor	-11.419
▁viola	-11.4191
chus	-11.4192
▁Cartoon	-11.4194
▁Dub	-11.4196
immer	-11.4198
▁Tyne	-11.4201
umba	-11.4205
▁Rom	-11.4207
▁Adventure	-11.4209
▁Blanc	-11.421
One	-11.4214
ete	-11.4214
worm	-11.4215
▁commanded	-11.4216
▁efficiency	-11.4217
▁Physics	-11.4217
▁analyst	-11.4217
slav	-11.4218
France	-11.4218
▁Midland	-11.422
▁treaty	-11.4221
▁god	-11.4226
▁illustration	-11.4228
▁riot	-11.423
▁pot	-11.423
▁faction	-11.4231
iver	-11.4231
▁hum	-11.4233
▁descendants	-11.4237
▁beating	-11.4237
nin	-11.4242
▁messages	-11.4244
800	-11.4245
Spanish	-11.4249
system	-11.4249
first	-11.425
▁arise	-11.425
▁conceived	-11.4251
▁scope	-11.4253
wara	-11.4254
iser	-11.4254
▁rodent	-11.4255
▁shipping	-11.4256
▁Advisory	-11.4259
▁Ghanaian	-11.4261
▁suite	-11.4265
location	-11.4265
▁Make	-11.427
combe	-11.427
▁seeds	-11.4271
▁Sign	-11.4273
DL	-11.4276
▁Flu	-11.4276
▁Goa	-11.4281
▁88	-11.4284
▁Rum	-11.4285
▁Copenhagen	-11.4286
▁Safety	-11.4286
▁complement	-11.4286
▁immigration	-11.4286
▁reggae	-11.4286
▁victories	-11.4286
▁extant	-11.4286
▁Johannesburg	-11.4286
▁Facebook	-11.4286
▁shallow	-11.4287
▁Baronetcy	-11.4288
FF	-11.429
▁110	-11.429
LI	-11.429
▁Emil	-11.4291
▁Arctic	-11.4292
▁perfect	-11.4294
grave	-11.4307
▁Paper	-11.4313
▁Carlo	-11.4315
▁Ou	-11.4316
▁5,000	-11.4318
▁Chess	-11.4319
IEEE	-11.4321
▁Examples	-11.4321
▁Guatemala	-11.4321
▁Individual	-11.4321
▁Omaha	-11.4321
▁horizontal	-11.4321
▁Cock	-11.4321
▁Dubai	-11.4322
▁corruption	-11.4322
▁pull	-11.4324
▁Gibb	-11.4326
▁else	-11.4327
▁Denis	-11.4329
▁Hyper	-11.4329
▁lighthouse	-11.433
▁WB	-11.4331
pore	-11.4332
▁practiced	-11.4332
▁praise	-11.4339
▁CM	-11.4339
▁Strait	-11.4342
▁falling	-11.4351
▁Perform	-11.4354
▁synonym	-11.4354
▁Gloucester	-11.4355
▁constituent	-11.4356
▁intervention	-11.4356
▁Ahmad	-11.4356
EF	-11.4356
▁93	-11.4362
▁Pho	-11.4365
▁Scar	-11.4366
▁Hab	-11.4367
▁Geneva	-11.4367
chang	-11.4368
▁bench	-11.4368
plex	-11.4368
▁succession	-11.4369
▁Quest	-11.4371
▁constitute	-11.4372
lake	-11.4373
EG	-11.4375
▁quick	-11.4379
gging	-11.4379
▁Syrian	-11.438
▁lose	-11.438
▁Oz	-11.4381
▁Gross	-11.4382
▁burned	-11.4383
pine	-11.4384
▁Sega	-11.4388
▁dealer	-11.439
protein	-11.439
science	-11.439
▁Botswana	-11.439
▁Electoral	-11.439
▁Syracuse	-11.439
▁argument	-11.439
▁describing	-11.439
▁elevated	-11.439
▁hidden	-11.439
▁Learning	-11.4391
▁grape	-11.4391
▁Rhine	-11.4391
▁Flower	-11.4391
▁Event	-11.4393
▁Maritime	-11.4393
▁commitment	-11.4395
▁Tales	-11.4396
▁Elliott	-11.4396
Brien	-11.4397
▁Prem	-11.4397
▁resist	-11.4398
▁exhibits	-11.4405
▁gland	-11.4406
▁mechanisms	-11.4406
▁Atari	-11.4407
▁AFC	-11.4412
▁consumers	-11.4412
▁fired	-11.4413
enburg	-11.4413
mut	-11.4414
▁Total	-11.4416
grad	-11.4421
▁Chancellor	-11.4422
tempo	-11.4424
▁Hermione	-11.4426
▁Observatory	-11.4426
▁powder	-11.4426
▁ritual	-11.4426
▁prompt	-11.4426
▁manages	-11.4427
▁Stro	-11.4427
culture	-11.4428
▁magnetic	-11.4429
▁ZIP	-11.443
▁seeks	-11.4431
▁Eve	-11.4433
OT	-11.4434
owski	-11.4435
▁dart	-11.4435
▁ballad	-11.4436
▁Neg	-11.4443
▁Prof	-11.4453
▁Yard	-11.4454
▁solely	-11.4455
TL	-11.4456
▁76	-11.4459
hman	-11.4459
▁Buddhist	-11.4461
▁Providence	-11.4461
▁guarantee	-11.4461
▁guilty	-11.4461
▁syndicated	-11.4461
▁Study	-11.4461
▁fraud	-11.4461
itan	-11.4462
▁Derek	-11.4463
▁minimal	-11.4463
hana	-11.4463
▁roster	-11.4466
dog	-11.4466
▁1877	-11.4467
SV	-11.447
▁LA	-11.447
▁exam	-11.447
mail	-11.4471
▁Paint	-11.4472
TH	-11.4473
▁Look	-11.4475
lite	-11.4477
▁Advance	-11.4478
▁Cool	-11.448
▁Fourth	-11.4481
real	-11.4482
heart	-11.4484
▁Fighting	-11.4488
▁bowling	-11.4489
▁78	-11.4489
▁mammals	-11.4495
▁explicit	-11.4496
▁Eurovision	-11.4496
▁lunar	-11.4497
▁NSW	-11.4498
▁Devi	-11.4498
▁underlying	-11.4498
▁Kurt	-11.4499
▁readers	-11.4505
▁Armenian	-11.4505
▁Wheel	-11.4507
kur	-11.4511
▁monitoring	-11.4511
Har	-11.4512
MB	-11.4513
citing	-11.4513
crib	-11.4513
▁Plains	-11.4513
▁regulate	-11.4514
▁Burke	-11.4516
▁gig	-11.4517
cup	-11.4522
▁encompass	-11.4522
▁z	-11.4525
▁Kiss	-11.4529
het	-11.453
▁jobs	-11.453
awn	-11.4531
▁Sacramento	-11.4532
▁advertisement	-11.4532
▁furniture	-11.4532
▁monastery	-11.4532
▁identification	-11.4532
peptide	-11.4532
▁Article	-11.4532
▁measured	-11.4532
▁unofficial	-11.4533
▁baby	-11.4537
▁varies	-11.4537
▁Cuban	-11.4537
▁1879	-11.4538
▁Want	-11.4538
▁enrolled	-11.4546
phan	-11.4546
▁Rally	-11.4557
▁delay	-11.4557
UP	-11.4559
▁push	-11.4561
FR	-11.4562
omin	-11.4563
▁Labrador	-11.4567
▁pharmaceutical	-11.4567
▁welfare	-11.4567
▁revolution	-11.4568
▁tiny	-11.457
▁crack	-11.4571
▁friendly	-11.4571
emia	-11.4573
▁insert	-11.4574
▁Wen	-11.4574
▁wound	-11.4574
6,000	-11.4577
▁incorporates	-11.4578
▁dogs	-11.4583
▁bearing	-11.4584
punk	-11.4584
TU	-11.4586
▁closer	-11.4586
▁Cowboys	-11.4587
▁providers	-11.4589
▁Bone	-11.4589
▁rode	-11.4592
▁inhibit	-11.4593
OD	-11.4594
▁Kyle	-11.4598
gence	-11.4599
▁slaves	-11.4601
tak	-11.4602
osoma	-11.4602
stylized	-11.4603
▁browser	-11.4603
▁chromosome	-11.4603
▁extending	-11.4603
▁sang	-11.4603
▁trait	-11.4604
▁flour	-11.4604
▁Nak	-11.4604
▁Harper	-11.4605
▁Online	-11.4605
▁directing	-11.4605
party	-11.4607
▁grants	-11.4607
ppy	-11.4609
▁crossed	-11.4609
▁Wald	-11.461
▁smallest	-11.461
▁Strike	-11.461
▁Sox	-11.4611
aver	-11.4612
▁coral	-11.4613
politan	-11.4613
▁Bug	-11.4613
ardi	-11.4614
▁Mick	-11.4616
▁WTA	-11.4617
▁Churches	-11.4619
▁2:	-11.4619
▁teenager	-11.4622
▁Butter	-11.4626
▁Thorn	-11.4627
▁Cecil	-11.4629
▁negotiat	-11.4638
▁Beyond	-11.4639
▁Emirates	-11.4639
▁Recreation	-11.4639
▁gubernatorial	-11.4639
▁inclusion	-11.4639
▁luxury	-11.4639
▁physicist	-11.4639
▁Dungeon	-11.4639
▁Weather	-11.4639
▁stint	-11.4639
▁Middlesex	-11.464
▁ruler	-11.464
generation	-11.4641
▁polar	-11.4641
▁Those	-11.4641
▁Cloud	-11.4643
▁generic	-11.4644
▁Single	-11.4645
▁commenced	-11.4645
▁Iceland	-11.4647
▁experts	-11.4647
▁Duck	-11.4648
▁rotation	-11.4648
ccompanying	-11.4649
▁Fork	-11.4651
gloss	-11.4653
▁beta	-11.4653
▁polo	-11.4654
▁Brain	-11.4662
▁socio	-11.4663
▁beam	-11.4666
▁Raz	-11.4667
▁Nagar	-11.4668
forming	-11.4669
▁lesser	-11.4669
beck	-11.4671
▁exhibited	-11.4673
▁entertain	-11.4674
▁Sr	-11.4674
▁Technologies	-11.4675
▁Produced	-11.4675
▁cheese	-11.4675
▁Lum	-11.4676
▁wireless	-11.4676
▁documented	-11.4676
▁steep	-11.4677
▁worm	-11.4677
▁Silva	-11.4678
▁neighbor	-11.4678
▁commentary	-11.4678
▁honey	-11.4679
▁Janata	-11.4679
▁Educational	-11.4687
▁protests	-11.4687
▁attempting	-11.4688
▁farmer	-11.4692
▁Soft	-11.4692
▁gable	-11.4693
▁Walsh	-11.4693
▁Nicola	-11.4694
fr	-11.4695
▁Albania	-11.4696
▁shorter	-11.4699
▁exci	-11.47
NY	-11.4702
▁reaches	-11.4708
▁valuable	-11.4711
▁Peerage	-11.4711
▁Staffordshire	-11.4711
▁truth	-11.4711
▁Lincolnshire	-11.4712
▁creek	-11.4713
▁HBO	-11.4714
▁Craft	-11.4715
▁Ottoman	-11.4715
▁Moh	-11.4716
▁1868	-11.4717
▁blow	-11.4721
▁rent	-11.4723
▁Hau	-11.4724
▁Yugoslavia	-11.4726
egan	-11.4729
▁rod	-11.4733
plication	-11.4735
ambi	-11.4736
zone	-11.4736
▁elder	-11.4738
▁Rabbi	-11.4738
▁Meh	-11.474
▁enables	-11.474
▁Johnston	-11.4743
▁dock	-11.4744
▁artifacts	-11.4747
▁barrier	-11.4747
▁admission	-11.4747
▁chest	-11.4749
▁tribal	-11.4749
▁clinic	-11.4749
▁Bailey	-11.475
▁Gabon	-11.4757
illus	-11.476
series	-11.4761
▁interim	-11.4762
▁Mang	-11.4765
▁suffering	-11.4767
▁Lib	-11.477
▁spend	-11.477
antho	-11.4773
▁namely	-11.4775
▁Domini	-11.4777
▁boarding	-11.4781
▁Beginning	-11.4783
▁coincide	-11.4784
▁stroke	-11.4784
nnie	-11.4786
finned	-11.4786
▁anime	-11.4787
▁selective	-11.4789
▁decoration	-11.4789
▁Murder	-11.4789
▁approaches	-11.479
▁aspect	-11.4791
▁3000	-11.4791
▁Naga	-11.4792
▁RFC	-11.4796
▁reader	-11.4797
▁Hon	-11.4802
▁shoot	-11.4804
▁Appeals	-11.4806
Ex	-11.4809
▁100,000	-11.4809
▁combin	-11.4813
▁liver	-11.4815
▁Sala	-11.4817
zzi	-11.4817
▁hook	-11.4819
▁beautiful	-11.482
▁charitable	-11.482
▁galaxy	-11.482
▁warfare	-11.482
▁Investment	-11.482
▁Saxony	-11.482
▁puzzle	-11.482
▁prayer	-11.4821
stad	-11.4822
▁Bac	-11.4823
▁Guyana	-11.4823
▁cooperative	-11.4824
hea	-11.4824
drums	-11.4826
▁commemorat	-11.4827
▁manor	-11.4832
▁spelling	-11.4833
▁remixes	-11.4835
rium	-11.4837
▁continuously	-11.4839
rrh	-11.484
usually	-11.4844
▁Esp	-11.4854
▁drain	-11.4856
▁Bedford	-11.4856
▁Giovanni	-11.4857
▁approval	-11.4857
▁magnitude	-11.4857
▁precursor	-11.4857
▁shadow	-11.4857
▁widow	-11.4857
▁wool	-11.4857
recorded	-11.4859
▁Edwin	-11.4859
▁counted	-11.4862
▁illustrator	-11.4862
▁Image	-11.4863
▁Gala	-11.4864
▁dish	-11.4865
▁Sugar	-11.4865
▁Electrical	-11.4865
▁oak	-11.4867
opod	-11.4868
▁handling	-11.4868
▁Zoo	-11.4869
hari	-11.4869
▁mud	-11.487
bile	-11.4875
▁Presidential	-11.488
▁Wave	-11.4881
▁folded	-11.4888
iger	-11.4891
▁Bangalore	-11.4893
▁perceived	-11.4893
▁counterpart	-11.4894
etto	-11.4895
wheel	-11.4896
▁options	-11.4898
▁1882	-11.4898
▁Que	-11.49
▁Core	-11.4902
▁electron	-11.4903
▁Factory	-11.4905
▁Former	-11.4905
▁parishes	-11.4907
▁1840	-11.4909
step	-11.4909
▁argued	-11.4911
▁reward	-11.4914
▁Origin	-11.4914
fill	-11.4915
orum	-11.4917
powered	-11.492
▁longtime	-11.4929
▁commissioner	-11.4929
▁Cretaceous	-11.493
▁Herzegovina	-11.493
▁Traditional	-11.493
▁Insurance	-11.493
▁depression	-11.493
▁renewed	-11.493
▁pine	-11.493
▁democratic	-11.4931
▁loyal	-11.4931
▁decorated	-11.4931
▁Rachel	-11.4932
▁Borneo	-11.4932
▁Teacher	-11.4933
▁Haz	-11.4933
▁attendance	-11.4933
▁laugh	-11.4933
liga	-11.4936
published	-11.494
green	-11.494
mbra	-11.4941
▁dub	-11.4943
▁thing	-11.4945
rata	-11.4946
lou	-11.495
cost	-11.4954
jah	-11.4961
▁Rank	-11.4964
▁occasion	-11.4966
▁relate	-11.4967
▁surrender	-11.4967
▁discussed	-11.4967
▁inflorescence	-11.4967
▁battery	-11.4967
▁Pioneer	-11.4967
▁Apollo	-11.4967
▁email	-11.4969
▁Concord	-11.497
▁1936)	-11.4972
▁Somalia	-11.4972
▁speculat	-11.4972
base	-11.4973
▁basal	-11.4975
▁Ballet	-11.4975
▁Highlands	-11.4976
▁alpha	-11.4977
date	-11.4977
uca	-11.498
▁disco	-11.4981
▁tent	-11.4986
▁argue	-11.4987
hm	-11.4993
▁VFL	-11.4993
▁Saga	-11.4995
▁anyone	-11.5
▁Roland	-11.5001
▁popularly	-11.5004
▁Julia	-11.5004
▁Heavyweight	-11.5004
▁artillery	-11.5004
▁accumulat	-11.5004
▁throne	-11.5004
▁ancestor	-11.5004
▁Afghan	-11.5004
▁psychologist	-11.5005
▁Coalition	-11.5005
▁Pirates	-11.5005
▁Architecture	-11.5005
enstein	-11.5008
NL	-11.5009
▁Phillip	-11.5011
▁Rud	-11.5012
winged	-11.5012
▁burn	-11.5013
nius	-11.5016
▁Alam	-11.5017
▁lobe	-11.5017
ijk	-11.5019
▁barn	-11.502
▁mentor	-11.503
▁Combat	-11.503
hav	-11.5031
▁Mae	-11.5033
▁seemed	-11.5034
▁currency	-11.5042
▁philanthropist	-11.5042
▁MONA	-11.5042
nant	-11.5043
▁adoption	-11.5047
▁lateral	-11.5049
▁laser	-11.5051
▁Brig	-11.5054
▁prefer	-11.5055
marine	-11.5059
glu	-11.5059
zio	-11.5059
▁Sandy	-11.5065
North	-11.5067
BM	-11.5069
▁beliefs	-11.507
▁Fed	-11.5071
▁corresponding	-11.5078
▁Hawthorn	-11.5079
▁Initiative	-11.5079
▁Literary	-11.5079
▁ARIA	-11.5079
▁Credit	-11.508
akka	-11.5082
▁logic	-11.5084
▁solve	-11.5085
▁porch	-11.5089
▁Pond	-11.5092
▁Honey	-11.5094
▁explore	-11.5094
▁Rath	-11.5096
▁Fast	-11.5101
atum	-11.5101
mie	-11.5101
▁Eden	-11.5107
▁Rand	-11.511
▁robot	-11.5112
bad	-11.5114
▁household	-11.5116
▁Malcolm	-11.5117
▁chronological	-11.5117
▁judicial	-11.5117
▁circular	-11.5117
▁Janeiro	-11.5117
▁Source	-11.5117
▁attitude	-11.5117
▁Sumatra	-11.5117
▁glyc	-11.5117
▁Marty	-11.5118
▁drill	-11.5119
▁Herald	-11.5122
credit	-11.5122
▁1874	-11.5122
Art	-11.5122
▁Muk	-11.5124
▁inhabit	-11.5126
▁deposits	-11.5131
▁jointly	-11.5133
▁FRS	-11.5134
▁Corr	-11.5142
▁Sindh	-11.5142
▁authored	-11.515
telli	-11.5154
▁Academic	-11.5154
▁dismissed	-11.5154
▁weevil	-11.5154
▁Agricultural	-11.5155
▁Odisha	-11.5155
▁Viscount	-11.5156
▁Hayes	-11.5156
▁radar	-11.5156
▁Typically	-11.5159
▁consulting	-11.5159
▁difficulties	-11.5159
LR	-11.516
▁unre	-11.5162
gol	-11.5167
▁absorbed	-11.5167
▁Pir	-11.5168
▁Working	-11.5168
▁restrict	-11.5169
▁Erik	-11.517
VC	-11.5176
▁zoo	-11.5183
▁slopes	-11.5184
▁Mormon	-11.5188
elect	-11.5189
▁Helsinki	-11.5192
▁psychedelic	-11.5192
▁precise	-11.5192
▁revised	-11.5192
▁Warwickshire	-11.5193
▁outlets	-11.5193
▁antenna	-11.5193
▁140	-11.5194
▁naturally	-11.5198
kot	-11.5199
▁ready	-11.5202
▁mask	-11.5207
▁Aqua	-11.5209
▁captained	-11.521
▁Friend	-11.5217
production	-11.5229
▁Sharp	-11.5229
▁Sebastian	-11.523
▁(2006)	-11.523
▁genome	-11.523
▁raising	-11.523
▁assignment	-11.523
▁Partners	-11.523
▁Patricia	-11.5231
▁drag	-11.5235
▁1867	-11.5237
grass	-11.5238
▁lighting	-11.5238
▁chapters	-11.5238
adh	-11.5239
▁mechanic	-11.5243
▁Visit	-11.5245
▁Nash	-11.5247
garh	-11.5248
▁coins	-11.5251
GC	-11.5252
▁workshops	-11.5252
▁synthetic	-11.5253
▁Body	-11.5254
borg	-11.5256
MU	-11.5261
▁Brom	-11.5261
▁Khal	-11.5266
drop	-11.5266
▁gods	-11.5268
▁Canberra	-11.5269
▁Lebanese	-11.5269
▁emperor	-11.5269
▁migration	-11.5269
▁Pyramidellidae	-11.5269
▁Griffin	-11.5269
▁Put	-11.5273
▁84	-11.5274
▁1871	-11.5275
chair	-11.5277
▁Loch	-11.528
▁Marian	-11.5288
FB	-11.529
▁Slam	-11.5293
ovich	-11.5293
anza	-11.5301
▁accounting	-11.5302
▁Nico	-11.5304
BE	-11.5305
store	-11.5305
▁item	-11.5305
▁councilors	-11.5307
▁memoir	-11.5307
▁mirror	-11.5307
▁expense	-11.5307
▁hormone	-11.5307
▁statute	-11.5307
▁grandfather	-11.5307
▁Bhutan	-11.5307
▁Kaz	-11.5307
▁poison	-11.5308
▁rabbi	-11.5309
▁repris	-11.5309
▁Associated	-11.5309
▁paperback	-11.5311
▁1859	-11.5314
▁plum	-11.5314
boo	-11.5315
▁cutting	-11.5316
▁Clement	-11.5322
▁Berry	-11.5324
▁Arya	-11.5326
▁HM	-11.5327
▁Parti	-11.5328
▁bomber	-11.5329
ulator	-11.533
▁Rein	-11.5332
▁marsh	-11.5336
▁(16	-11.5343
▁pyram	-11.5343
▁Commodore	-11.5345
▁Kuwait	-11.5345
▁mosque	-11.5346
▁Clyde	-11.5346
tet	-11.5346
▁Forbes	-11.5346
▁recreation	-11.5347
-1990	-11.535
▁informal	-11.5352
ggle	-11.5354
▁mansion	-11.5355
▁crops	-11.5355
▁dys	-11.5357
▁Ellen	-11.5361
-14	-11.5361
▁essays	-11.5365
month	-11.5365
▁97	-11.5372
pec	-11.5374
▁Kab	-11.5379
▁nearest	-11.5379
▁container	-11.5381
▁closest	-11.5384
▁exterior	-11.5384
▁inherited	-11.5384
▁jockey	-11.5384
▁mixtape	-11.5384
▁routine	-11.5384
▁altitude	-11.5384
▁Leicestershire	-11.5384
▁specimens	-11.5385
▁layout	-11.5386
▁Host	-11.5386
▁prim	-11.5386
tour	-11.5389
▁specified	-11.5389
▁1878	-11.5391
▁armor	-11.5392
▁700	-11.5394
▁nano	-11.5395
▁Bolton	-11.5395
▁Gab	-11.5396
quil	-11.5399
hum	-11.54
▁Chick	-11.5402
▁prepare	-11.5405
clav	-11.5409
▁failing	-11.541
▁Mata	-11.541
▁patri	-11.5413
▁Tibet	-11.5415
▁Barnes	-11.542
▁gathering	-11.5422
▁humanitarian	-11.5423
▁Knox	-11.5425
▁strengthen	-11.5428
▁Petersburg	-11.5428
▁Large	-11.5428
UK	-11.5433
▁1937)	-11.5434
Donnell	-11.5437
▁equi	-11.5437
Bar	-11.5448
▁Add	-11.545
▁Helm	-11.5451
ulidae	-11.5457
▁Afro	-11.5457
▁Rip	-11.5459
▁Lycaenidae	-11.5462
▁Female	-11.5462
▁racial	-11.5462
▁Hood	-11.5462
▁chorus	-11.5462
▁swamp	-11.5462
▁Kno	-11.5464
▁jumping	-11.5465
▁NGC	-11.5465
▁79	-11.5465
tailed	-11.5467
ffi	-11.5467
▁1875	-11.547
▁Willis	-11.5471
bou	-11.5474
▁Robertson	-11.5477
bone	-11.5479
▁Wir	-11.5479
scription	-11.548
▁Um	-11.5486
▁Cycl	-11.5487
▁monk	-11.5492
▁Consul	-11.5492
▁transform	-11.5493
▁Producer	-11.5501
▁Custom	-11.5501
▁Heaven	-11.5501
▁Ng	-11.5501
▁tenant	-11.5502
▁Curling	-11.5506
▁1858	-11.5507
team	-11.5507
▁mate	-11.5509
▁eat	-11.5512
mara	-11.5514
▁1830	-11.5519
▁bind	-11.5522
▁Liz	-11.5523
▁armored	-11.5529
▁skate	-11.553
▁emphasize	-11.5533
▁democracy	-11.554
▁renovated	-11.554
▁strategies	-11.554
▁frigate	-11.554
▁Pig	-11.554
▁feather	-11.554
▁restrictions	-11.5541
▁Oslo	-11.5542
▁spectr	-11.5542
▁timeline	-11.5543
▁textile	-11.5544
▁saving	-11.5544
▁Caroline	-11.5545
▁tap	-11.5546
▁murdered	-11.555
▁Martha	-11.555
cto	-11.5552
▁Inside	-11.5558
▁Liber	-11.5558
▁sunk	-11.5564
▁thirteenth	-11.5565
▁explores	-11.5565
▁Tourism	-11.5565
ophyl	-11.5565
GI	-11.5565
▁Guru	-11.5565
▁Guil	-11.5567
▁investor	-11.5567
▁82	-11.5574
▁molecules	-11.5578
▁Paradise	-11.5579
▁oxygen	-11.5579
▁Jaime	-11.5579
▁Yankee	-11.5579
▁Naples	-11.558
▁Sometimes	-11.558
▁Joshua	-11.558
both	-11.558
▁Further	-11.558
▁Happy	-11.5581
▁Must	-11.5581
▁Wesley	-11.5582
▁barb	-11.5584
▁1857	-11.5586
▁charting	-11.5591
▁Plain	-11.5593
established	-11.5594
▁Motion	-11.5598
▁regulated	-11.5599
▁Lone	-11.5601
▁Norton	-11.5601
▁Gui	-11.5605
5)	-11.5609
▁Hold	-11.561
▁sheep	-11.5612
▁Jun	-11.5613
▁defines	-11.5614
▁Rot	-11.5617
▁Canton	-11.5618
▁authentic	-11.5619
▁evaluation	-11.5619
▁Tobago	-11.5619
cation	-11.5619
▁Boeing	-11.562
▁Liberation	-11.5622
▁Person	-11.5622
▁mandal	-11.5625
▁keyboardist	-11.5626
▁Michelle	-11.5627
▁disability	-11.5627
▁Historically	-11.5628
cession	-11.5632
▁tetra	-11.5633
▁Georg	-11.5634
love	-11.5636
human	-11.5638
▁prevention	-11.5638
▁Vista	-11.5639
▁transcription	-11.5639
▁Emb	-11.564
▁wage	-11.5647
▁Bron	-11.5651
▁Gol	-11.5652
▁Dominic	-11.5652
▁belonged	-11.5656
▁Tyr	-11.5658
▁Brussels	-11.5658
▁automotive	-11.5658
▁Seminary	-11.5658
▁(2012)	-11.5658
▁density	-11.5659
▁chef	-11.5659
▁Holdings	-11.5659
▁fairly	-11.5659
▁thread	-11.566
▁addresses	-11.5663
▁regardless	-11.5663
▁cord	-11.5664
▁Betty	-11.5665
▁outbreak	-11.5666
▁requir	-11.5679
El	-11.568
▁specialty	-11.5683
lish	-11.5686
▁Era	-11.5689
enda	-11.5691
▁Carabidae	-11.5698
▁Excellence	-11.5698
▁Salvador	-11.5698
▁navigation	-11.5698
▁territorial	-11.5698
▁knock	-11.5699
▁pier	-11.57
▁afterwards	-11.57
▁spacecraft	-11.57
nine	-11.5701
▁Galway	-11.5703
▁1873	-11.5705
▁Bharat	-11.5705
▁Cherry	-11.5706
▁Against	-11.5706
▁Riverside	-11.5708
ifer	-11.5708
▁Rut	-11.5709
▁pad	-11.5709
▁cooking	-11.571
▁branded	-11.5711
▁Dawn	-11.5711
▁Courthouse	-11.5712
▁pill	-11.5716
▁attacking	-11.572
▁lifetime	-11.5726
kir	-11.5732
tling	-11.5737
▁Abd	-11.5738
▁demonstration	-11.5738
▁esthetic	-11.5738
▁mushroom	-11.5738
▁panchayat	-11.5738
▁Southampton	-11.5738
▁incarnation	-11.5738
▁Ivory	-11.5738
▁auction	-11.5739
▁sworn	-11.5739
jer	-11.5739
▁san	-11.574
▁republic	-11.5742
▁Cornell	-11.5743
▁VII	-11.5748
▁Sprint	-11.5751
WR	-11.5754
▁postal	-11.5755
▁Fear	-11.5764
▁Sak	-11.5766
▁fewer	-11.5766
▁scholarly	-11.5768
umi	-11.5776
▁Congregation	-11.5778
▁Mathematics	-11.5778
▁Nuclear	-11.5778
▁Platinum	-11.5778
▁delegation	-11.5778
▁Therefore	-11.5779
▁Narayan	-11.5779
▁Camden	-11.5785
▁Poli	-11.5786
▁Nov	-11.5786
▁Haute	-11.5789
▁missionary	-11.579
TN	-11.579
olin	-11.5793
▁taxes	-11.5794
▁1.5	-11.5794
ograph	-11.5796
▁mere	-11.5797
▁Kho	-11.5797
▁controller	-11.5798
▁Bit	-11.5799
will	-11.58
max	-11.58
▁(15	-11.5802
▁nucle	-11.581
▁fled	-11.581
▁Need	-11.5817
▁Jets	-11.5817
▁Chelsea	-11.5819
▁Nymphalidae	-11.5819
▁Wiltshire	-11.5819
▁dinosaur	-11.5819
▁surgeon	-11.5819
▁survivor	-11.5819
▁Napoleon	-11.5819
▁(2013)	-11.5819
▁Besides	-11.5819
India	-11.582
▁petition	-11.582
▁duration	-11.5821
▁wrap	-11.5823
▁secured	-11.5823
▁legendary	-11.5823
▁Pune	-11.5823
prop	-11.5825
▁1869	-11.5825
▁complet	-11.5825
▁mold	-11.583
▁Lynch	-11.5831
largest	-11.5833
Latin	-11.5833
▁Georgetown	-11.5835
▁Tribe	-11.5836
▁2,000	-11.5839
▁hairy	-11.5839
▁Vita	-11.5843
▁defend	-11.5844
▁Carey	-11.5845
▁Batt	-11.5847
▁delayed	-11.5851
loom	-11.5851
▁Rules	-11.5853
▁tooth	-11.5856
▁Bog	-11.5858
▁photograph	-11.5858
▁Architect	-11.5858
▁Emergency	-11.5859
▁Protocol	-11.5859
▁voluntary	-11.5859
▁obscur	-11.5859
▁shock	-11.5859
▁technological	-11.5859
▁doubt	-11.5859
▁Geelong	-11.586
▁Psychology	-11.586
▁Shiva	-11.586
▁equity	-11.5861
▁evil	-11.5862
▁Million	-11.5863
▁thereby	-11.5864
glob	-11.5865
▁Premiership	-11.5867
opus	-11.5868
▁Process	-11.5868
stick	-11.5868
▁jury	-11.5871
escent	-11.5871
▁instant	-11.5872
▁geological	-11.5874
ought	-11.5875
▁Vince	-11.5875
HR	-11.5876
▁Harmon	-11.5879
▁Emma	-11.5881
▁advisory	-11.5881
▁desire	-11.5883
▁Weekly	-11.5883
▁pointed	-11.5884
▁recovered	-11.5886
▁altered	-11.5888
▁Coal	-11.5888
▁Armor	-11.5889
ophor	-11.5889
▁lying	-11.5891
▁wounded	-11.5892
▁Jin	-11.5892
▁slowly	-11.5894
fel	-11.5896
urban	-11.5898
▁Mozambique	-11.59
▁proximity	-11.59
▁surgical	-11.59
▁Buenos	-11.59
▁Beverly	-11.59
▁leather	-11.59
▁lymph	-11.59
▁flora	-11.59
▁Waterloo	-11.5901
▁Valentin	-11.5901
▁tallest	-11.5904
▁Alexandria	-11.5904
▁Munster	-11.5905
▁Mohan	-11.5909
▁Cohen	-11.5909
partisan	-11.5912
▁Biology	-11.5912
third	-11.5917
▁alter	-11.592
▁Aires	-11.5921
▁Randy	-11.5922
▁Chau	-11.5923
▁egg	-11.5926
▁Melan	-11.5926
▁Lance	-11.5935
▁silk	-11.594
▁Hertfordshire	-11.5941
▁Nielsen	-11.5941
▁penalty	-11.5941
▁Dundee	-11.5941
▁airplay	-11.5946
▁weekday	-11.5947
▁Diploma	-11.5948
▁Zam	-11.595
▁Shop	-11.5954
▁onwards	-11.5955
▁accomplished	-11.5955
▁Idol	-11.5957
▁Yang	-11.5958
NHL	-11.5958
▁Archer	-11.5959
▁Nordic	-11.5962
▁Surf	-11.5963
7,000	-11.5964
▁parade	-11.5964
clad	-11.5966
▁dollars	-11.5969
▁nose	-11.5969
▁unless	-11.597
▁Zen	-11.5978
▁aluminum	-11.5982
▁vegetable	-11.5982
▁CNN	-11.5982
▁Resident	-11.5982
▁bulk	-11.5982
▁trunk	-11.5982
▁valve	-11.5982
▁Generation	-11.5983
▁fault	-11.5984
▁hydrogen	-11.5984
▁Beaver	-11.5984
▁spanning	-11.5984
▁choir	-11.5985
▁functionality	-11.5987
▁Brock	-11.5988
▁1866	-11.599
▁shifted	-11.5991
▁Touch	-11.5991
half	-11.5996
dependent	-11.5997
▁EMI	-11.5998
▁Northwestern	-11.6
sperm	-11.6006
▁Have	-11.6008
▁Hardy	-11.601
pack	-11.6011
▁Willie	-11.6021
pronounced	-11.6023
▁Archdeacon	-11.6023
▁spawned	-11.6023
▁Innovation	-11.6023
▁Rifle	-11.6023
▁Gandhi	-11.6023
▁Session	-11.6023
▁Crew	-11.6024
▁tongue	-11.6024
▁preferred	-11.6024
▁Madrid	-11.6026
▁strange	-11.6028
▁foster	-11.6029
▁Spo	-11.603
▁frontman	-11.6031
▁Hammer	-11.6034
organized	-11.6037
▁Formerly	-11.6037
instrumentalist	-11.6042
ophora	-11.605
▁exit	-11.6052
▁Scha	-11.6052
▁Hap	-11.6054
▁Pod	-11.6058
uria	-11.6059
▁Notabl	-11.606
▁Merit	-11.6061
ifolia	-11.6064
▁FIBA	-11.6064
▁criteria	-11.6064
▁flew	-11.6066
▁Morton	-11.6066
▁Patrol	-11.6066
arius	-11.6067
▁replica	-11.6069
▁hung	-11.6069
▁Acro	-11.607
▁Monica	-11.6071
▁revolves	-11.6071
▁mature	-11.6072
▁ODI	-11.6072
previously	-11.6076
frame	-11.6076
Script	-11.6079
AV	-11.608
▁bare	-11.608
▁seem	-11.6082
▁killer	-11.6085
kirk	-11.6086
▁105	-11.6087
▁160	-11.6089
▁Qa	-11.6089
augh	-11.6091
DOS	-11.6094
▁Jake	-11.6094
▁habit	-11.6094
osus	-11.6095
▁Shawn	-11.6096
▁uni	-11.6102
▁Drake	-11.6103
wald	-11.6106
▁Incumbent	-11.6106
▁necessarily	-11.6106
▁(2009)	-11.6106
▁Julius	-11.6106
▁civic	-11.6106
▁plug	-11.6106
▁denied	-11.6106
script	-11.6106
▁victim	-11.6106
▁bike	-11.6106
▁Species	-11.6108
▁retreat	-11.611
▁Driver	-11.6111
▁organizer	-11.6112
▁fatal	-11.6113
▁1932)	-11.6115
icola	-11.6118
▁Style	-11.612
▁Cove	-11.6121
▁Brandon	-11.6121
garde	-11.6121
▁raw	-11.6123
▁Ent	-11.6125
▁wealthy	-11.6127
mil	-11.6131
chlor	-11.6134
ogenic	-11.6136
about	-11.6139
dou	-11.6141
still	-11.6147
▁vicinity	-11.6147
▁(2005)	-11.6147
▁documentaries	-11.6148
▁molecule	-11.6149
▁mammal	-11.6149
▁Claire	-11.615
▁Dart	-11.6151
▁cellular	-11.6151
▁unanimously	-11.6151
▁quote	-11.6152
▁1935)	-11.6153
:30	-11.6155
▁requirement	-11.6155
▁Chapman	-11.6156
racy	-11.6156
idia	-11.6158
▁climbing	-11.6159
▁Ani	-11.6159
▁Bangladeshi	-11.6166
Love	-11.6167
▁Gad	-11.6167
▁Serie	-11.6171
PN	-11.6175
▁consistent	-11.6175
▁prove	-11.6179
RB	-11.6181
lace	-11.6185
litz	-11.6185
▁exploit	-11.6186
▁rape	-11.6189
▁Pleasant	-11.6189
▁embedded	-11.6189
▁tobacco	-11.6189
▁Galaxy	-11.6189
▁eldest	-11.6189
▁maritime	-11.6189
▁Applied	-11.6189
▁trauma	-11.6189
▁Flint	-11.619
▁Norwich	-11.619
▁imaging	-11.619
▁Thomson	-11.6191
▁Sidney	-11.6191
▁Ami	-11.6192
▁Poetry	-11.6192
▁lung	-11.6193
disc	-11.6194
▁chronic	-11.6194
writing	-11.6198
▁hind	-11.6199
▁opt	-11.62
developed	-11.6202
▁Ashley	-11.6204
trich	-11.6206
gaon	-11.6207
owner	-11.6209
▁Gel	-11.6212
dhi	-11.6212
oj	-11.6217
▁dependent	-11.6224
▁Wide	-11.6225
▁Again	-11.6225
▁sul	-11.6226
▁Scho	-11.6226
▁Finn	-11.6227
responsibilities	-11.6231
▁Nichols	-11.6231
▁chicken	-11.6231
▁hazard	-11.6231
▁supplier	-11.6231
▁transgender	-11.6231
three	-11.6232
Neill	-11.6233
▁Monmouth	-11.6233
▁Colony	-11.6233
▁Popular	-11.6233
▁Bronx	-11.6234
▁slate	-11.6235
▁waterfall	-11.6235
▁lightweight	-11.6235
▁infant	-11.6237
ichi	-11.6238
▁verb	-11.6238
▁Champ	-11.6239
John	-11.6246
▁Lucy	-11.6246
▁Hollow	-11.6246
▁Jackie	-11.6247
▁portrayal	-11.6249
▁neuron	-11.625
▁Togo	-11.6256
▁hydr	-11.6262
▁Casey	-11.6262
▁Sanders	-11.6263
▁Dunn	-11.6264
COM	-11.6269
▁Hale	-11.6271
Net	-11.6273
▁Constituency	-11.6273
▁Coventry	-11.6273
▁excellence	-11.6273
▁fixture	-11.6273
▁mathematician	-11.6273
▁automated	-11.6273
▁Animation	-11.6273
▁grammar	-11.6273
▁Broncos	-11.6273
▁dancing	-11.6274
▁subscription	-11.6275
▁permitted	-11.6276
▁birthday	-11.6276
▁Belize	-11.6277
▁transformation	-11.628
▁Niger	-11.6283
▁pig	-11.6288
University	-11.6289
▁rip	-11.629
▁Pride	-11.629
▁Lay	-11.6295
▁dimension	-11.6295
▁chrom	-11.6297
▁encode	-11.63
▁Close	-11.6301
▁Audio	-11.6301
▁Expo	-11.6302
▁defended	-11.6303
▁define	-11.6308
▁Sue	-11.6308
turn	-11.6309
▁reportedly	-11.6311
▁Canon	-11.6311
▁Intel	-11.6313
▁pyr	-11.6314
▁gymnast	-11.6316
▁Dorothy	-11.6316
▁Gibraltar	-11.6316
▁celebrities	-11.6316
▁ethics	-11.6316
▁substrate	-11.6316
[...]
